{
  "version": "1.0",
  "truncation": null,
  "padding": null,
  "added_tokens": [
    {
      "id": 0,
      "content": "<|pad|>",
      "single_word": false,
      "lstrip": false,
      "rstrip": false,
      "normalized": false,
      "special": true
    },
    {
      "id": 1,
      "content": "<|endoftext|>",
      "single_word": false,
      "lstrip": false,
      "rstrip": false,
      "normalized": false,
      "special": true
    },
    {
      "id": 2,
      "content": "<|im_start|>",
      "single_word": false,
      "lstrip": false,
      "rstrip": false,
      "normalized": false,
      "special": true
    },
    {
      "id": 3,
      "content": "<|im_end|>",
      "single_word": false,
      "lstrip": false,
      "rstrip": false,
      "normalized": false,
      "special": true
    }
  ],
  "normalizer": null,
  "pre_tokenizer": {
    "type": "ByteLevel",
    "add_prefix_space": false,
    "trim_offsets": true,
    "use_regex": true
  },
  "post_processor": null,
  "decoder": {
    "type": "ByteLevel",
    "add_prefix_space": true,
    "trim_offsets": true,
    "use_regex": true
  },
  "model": {
    "type": "BPE",
    "dropout": null,
    "unk_token": null,
    "continuing_subword_prefix": null,
    "end_of_word_suffix": null,
    "fuse_unk": false,
    "byte_fallback": false,
    "ignore_merges": false,
    "vocab": {
      "<|pad|>": 0,
      "<|endoftext|>": 1,
      "<|im_start|>": 2,
      "<|im_end|>": 3,
      "!": 4,
      "\"": 5,
      "#": 6,
      "$": 7,
      "%": 8,
      "&": 9,
      "'": 10,
      "(": 11,
      ")": 12,
      "*": 13,
      "+": 14,
      ",": 15,
      ".": 16,
      "/": 17,
      "0": 18,
      "1": 19,
      "2": 20,
      "3": 21,
      "4": 22,
      "5": 23,
      "6": 24,
      "7": 25,
      "8": 26,
      "9": 27,
      ";": 28,
      "<": 29,
      "=": 30,
      ">": 31,
      "?": 32,
      "@": 33,
      "A": 34,
      "B": 35,
      "C": 36,
      "D": 37,
      "E": 38,
      "F": 39,
      "G": 40,
      "H": 41,
      "I": 42,
      "J": 43,
      "K": 44,
      "L": 45,
      "M": 46,
      "N": 47,
      "O": 48,
      "P": 49,
      "Q": 50,
      "R": 51,
      "S": 52,
      "T": 53,
      "U": 54,
      "V": 55,
      "W": 56,
      "X": 57,
      "Y": 58,
      "Z": 59,
      "[": 60,
      "\\": 61,
      "]": 62,
      "^": 63,
      "_": 64,
      "`": 65,
      "a": 66,
      "b": 67,
      "c": 68,
      "d": 69,
      "e": 70,
      "f": 71,
      "g": 72,
      "h": 73,
      "i": 74,
      "j": 75,
      "k": 76,
      "l": 77,
      "m": 78,
      "n": 79,
      "o": 80,
      "p": 81,
      "q": 82,
      "r": 83,
      "s": 84,
      "t": 85,
      "u": 86,
      "v": 87,
      "w": 88,
      "x": 89,
      "y": 90,
      "z": 91,
      "{": 92,
      "|": 93,
      "}": 94,
      "~": 95,
      "¡": 96,
      "¢": 97,
      "£": 98,
      "¤": 99,
      "¥": 100,
      "¦": 101,
      "§": 102,
      "¨": 103,
      "©": 104,
      "ª": 105,
      "«": 106,
      "¬": 107,
      "®": 108,
      "¯": 109,
      "°": 110,
      "±": 111,
      "²": 112,
      "³": 113,
      "´": 114,
      "µ": 115,
      "¶": 116,
      "·": 117,
      "¸": 118,
      "¹": 119,
      "º": 120,
      "»": 121,
      "¼": 122,
      "½": 123,
      "¾": 124,
      "¿": 125,
      "Â": 126,
      "Ã": 127,
      "Ä": 128,
      "Å": 129,
      "Æ": 130,
      "Ç": 131,
      "È": 132,
      "É": 133,
      "Ê": 134,
      "Ë": 135,
      "Ì": 136,
      "Í": 137,
      "Î": 138,
      "Ï": 139,
      "Ð": 140,
      "Ñ": 141,
      "Ò": 142,
      "Ó": 143,
      "Ô": 144,
      "Õ": 145,
      "Ö": 146,
      "×": 147,
      "Ø": 148,
      "Ù": 149,
      "Ú": 150,
      "Û": 151,
      "Ü": 152,
      "Ý": 153,
      "Þ": 154,
      "ß": 155,
      "à": 156,
      "á": 157,
      "â": 158,
      "ã": 159,
      "ä": 160,
      "å": 161,
      "æ": 162,
      "ç": 163,
      "è": 164,
      "é": 165,
      "ê": 166,
      "ë": 167,
      "ì": 168,
      "í": 169,
      "î": 170,
      "ï": 171,
      "ĉ": 172,
      "Ċ": 173,
      "Ď": 174,
      "Ġ": 175,
      "ġ": 176,
      "Ģ": 177,
      "ģ": 178,
      "Ĥ": 179,
      "ĥ": 180,
      "Ħ": 181,
      "ħ": 182,
      "Ĩ": 183,
      "ĩ": 184,
      "Ī": 185,
      "ī": 186,
      "Ĭ": 187,
      "ĭ": 188,
      "Į": 189,
      "į": 190,
      "İ": 191,
      "ı": 192,
      "Ĳ": 193,
      "ĳ": 194,
      "Ĵ": 195,
      "ĵ": 196,
      "Ķ": 197,
      "ķ": 198,
      "ĸ": 199,
      "Ĺ": 200,
      "ĺ": 201,
      "Ļ": 202,
      "ļ": 203,
      "Ľ": 204,
      "ľ": 205,
      "Ŀ": 206,
      "ŀ": 207,
      "Ł": 208,
      "ł": 209,
      "Ń": 210,
      "ä¸": 211,
      "æĪ": 212,
      "çļ": 213,
      "çļĦ": 214,
      "ä½": 215,
      "æĪĳ": 216,
      "ä½ł": 217,
      "äº": 218,
      "å¤": 219,
      "æľ": 220,
      "è¿": 221,
      "ä¸į": 222,
      "åı": 223,
      "æĺ": 224,
      "å¿": 225,
      "ä¸Ģ": 226,
      "ä»": 227,
      "åľ": 228,
      "ä¹": 229,
      "æĺ¯": 230,
      "æĥ": 231,
      "åĪ": 232,
      "åĲ": 233,
      "æĹ": 234,
      "å°": 235,
      "çĪ": 236,
      "åľ¨": 237,
      "æľī": 238,
      "çĪ±": 239,
      "è¯": 240,
      "ä¼": 241,
      "å¿ĥ": 242,
      "çľ": 243,
      "å®": 244,
      "äºĨ": 245,
      "æī": 246,
      "ç»": 247,
      "å¾": 248,
      "è®": 249,
      "çĶ": 250,
      "ĥ½": 251,
      "äºº": 252,
      "åĨ": 253,
      "æĢ": 254,
      "å¥": 255,
      "æĿ": 256,
      "åħ": 257,
      "èµ": 258,
      "å¤©": 259,
      "çĿ": 260,
      "åį": 261,
      "è¦": 262,
      "æĦ": 263,
      "éĩ": 264,
      "è¦ģ": 265,
      "å¼": 266,
      "æĥ³": 267,
      "æ²": 268,
      "ï¼": 269,
      "å¯": 270,
      "æĿ¥": 271,
      "åİ": 272,
      "çĿĢ": 273,
      "æĥħ": 274,
      "è¿Ļ": 275,
      "åĽ": 276,
      "é£": 277,
      "éĤ": 278,
      "è¿ĩ": 279,
      "è§": 280,
      "å°±": 281,
      "å·": 282,
      "ä¼ļ": 283,
      "åĪ°": 284,
      "éĤ£": 285,
      "æŃ": 286,
      "å¹": 287,
      "ä¸ª": 288,
      "çĽ": 289,
      "åĳ": 290,
      "è°": 291,
      "æĬ": 292,
      "ä¸º": 293,
      "æµ": 294,
      "å¦": 295,
      "éĹ": 296,
      "åĩ": 297,
      "åŃ": 298,
      "ä¹Ł": 299,
      "å¤ļ": 300,
      "ãĢ": 301,
      "æ°": 302,
      "æĹł": 303,
      "éģ": 304,
      "å½": 305,
      "éĩĮ": 306,
      "åĵ": 307,
      "è¯´": 308,
      "éĥ½": 309,
      "æĪĳçļĦ": 310,
      "åİ»": 311,
      "åĨį": 312,
      "ä¹Ī": 313,
      "ä½łçļĦ": 314,
      "å¥½": 315,
      "éĿ": 316,
      "æ²¡": 317,
      "èĥ½": 318,
      "æ³": 319,
      "Âł": 320,
      "åıª": 321,
      "èĩ": 322,
      "éĢ": 323,
      "è·": 324,
      "ï¼Į": 325,
      "åģ": 326,
      "æ¸": 327,
      "è®©": 328,
      "å¾Ĺ": 329,
      "ä¸Ĭ": 330,
      "çĶŁ": 331,
      "åĬ": 332,
      "åķ": 333,
      "æĭ": 334,
      "ãģ": 335,
      "æĸ": 336,
      "å¼Ģ": 337,
      "èĩª": 338,
      "è¿ĺ": 339,
      "æĹ¶": 340,
      "éļ": 341,
      "çľĭ": 342,
      "çķ": 343,
      "ä¸Ń": 344,
      "æķ": 345,
      "å¦Ĥ": 346,
      "è½": 347,
      "åĴ": 348,
      "åı¯": 349,
      "Ġt": 350,
      "èµ·": 351,
      "ç¦": 352,
      "è°ģ": 353,
      "èĬ": 354,
      "æĽ": 355,
      "é£İ": 356,
      "éĽ": 357,
      "ou": 358,
      "æĶ": 359,
      "æ¢": 360,
      "æł": 361,
      "èĢ": 362,
      "æģ": 363,
      "çŁ": 364,
      "ä¸ĭ": 365,
      "ä»¬": 366,
      "åĽŀ": 367,
      "å¸": 368,
      "æ¯": 369,
      "æ¬": 370,
      "çº": 371,
      "è¾": 372,
      "èµ°": 373,
      "å¯¹": 374,
      "çĽ¸": 375,
      "ç¾": 376,
      "æ¢¦": 377,
      "åº": 378,
      "è¡": 379,
      "ç¬": 380,
      "ãĢĢ": 381,
      "åľ°": 382,
      "çĥ": 383,
      "çľ¼": 384,
      "çŁ¥": 385,
      "éĺ": 386,
      "åī": 387,
      "in": 388,
      "çİ": 389,
      "ç©": 390,
      "æľĢ": 391,
      "èĭ": 392,
      "å·²": 393,
      "åĪ«": 394,
      "è¿ľ": 395,
      "æĤ": 396,
      "çī": 397,
      "he": 398,
      "çľŁ": 399,
      "èº": 400,
      "åĢ": 401,
      "çŃ": 402,
      "æ·": 403,
      "çģ": 404,
      "èĬ±": 405,
      "å¤ľ": 406,
      "éĻ": 407,
      "çĤ": 408,
      "åĲİ": 409,
      "æĪĳä»¬": 410,
      "å±": 411,
      "æŀ": 412,
      "ç§": 413,
      "åĸ": 414,
      "åĥ": 415,
      "æīĭ": 416,
      "ä¸ĸ": 417,
      "å¤ª": 418,
      "åĥı": 419,
      "åĩº": 420,
      "æ²¡æľī": 421,
      "ä»ĸ": 422,
      "è§ģ": 423,
      "åĶ": 424,
      "æł·": 425,
      "ä»¥": 426,
      "ç¾İ": 427,
      "ä¸Ģä¸ª": 428,
      "..": 429,
      "çĦ": 430,
      "Ġm": 431,
      "æ»": 432,
      "åĴĮ": 433,
      "çĹ": 434,
      "åıĪ": 435,
      "æĦŁ": 436,
      "åħī": 437,
      "é»": 438,
      "æĻ": 439,
      "éģĵ": 440,
      "æİ": 441,
      "ä¼¤": 442,
      "æĮ": 443,
      "æĺİ": 444,
      "å¤§": 445,
      "ç»Ļ": 446,
      "ç¬ĳ": 447,
      "çĻ": 448,
      "Ġa": 449,
      "ä½ķ": 450,
      "ç®": 451,
      "éļ¾": 452,
      "æľĽ": 453,
      "åıĺ": 454,
      "ä»Ģ": 455,
      "èº«": 456,
      "çĤ¹": 457,
      "Ġy": 458,
      "æĶ¾": 459,
      "çĦ¶": 460,
      "éĹ´": 461,
      "èĲ": 462,
      "ç¦»": 463,
      "Ġs": 464,
      "Ġw": 465,
      "æĬĬ": 466,
      "å¹´": 467,
      "å£": 468,
      "æĦı": 469,
      "èĦ": 470,
      "ve": 471,
      "ä¿": 472,
      "çŃī": 473,
      "ä»Ģä¹Ī": 474,
      "å¿«": 475,
      "åį´": 476,
      "æĦ¿": 477,
      "æ³ª": 478,
      "å½ĵ": 479,
      "å¤´": 480,
      "å¿ĺ": 481,
      "æ´": 482,
      "ä¾": 483,
      "å·±": 484,
      "ç»ı": 485,
      "è®°": 486,
      "on": 487,
      "ä»İ": 488,
      "åĪĨ": 489,
      "çĭ": 490,
      "ç©º": 491,
      "æµģ": 492,
      "åķĬ": 493,
      "åīį": 494,
      "è·¯": 495,
      "éķ": 496,
      "re": 497,
      "æĪĲ": 498,
      "Ġyou": 499,
      "è¶": 500,
      "å°ı": 501,
      "èĩªå·±": 502,
      "æĢİ": 503,
      "æĹ¥": 504,
      "Ġl": 505,
      "æ¯ı": 506,
      "èĪ": 507,
      "æļ": 508,
      "çķĻ": 509,
      "æŃĮ": 510,
      "æ°¸": 511,
      "åŃĲ": 512,
      "å£°": 513,
      "éĽ¨": 514,
      "ä»Ĭ": 515,
      "ĠæĪĳ": 516,
      "åĮ": 517,
      "æľĪ": 518,
      "æ¼": 519,
      "è¢": 520,
      "éĿ¢": 521,
      "èĲ½": 522,
      "æ±": 523,
      "ç¥": 524,
      "çĻ½": 525,
      "ç¼": 526,
      "æħ": 527,
      "è´": 528,
      "åĿ": 529,
      "è¾¹": 530,
      "çİ°": 531,
      "Ġb": 532,
      "an": 533,
      "äºĭ": 534,
      "è®©æĪĳ": 535,
      "é¢": 536,
      "æĽ¾": 537,
      "æīĢ": 538,
      "éķ¿": 539,
      "æ·±": 540,
      "è½»": 541,
      "ä¹Ĳ": 542,
      "åĲ¬": 543,
      "éĶ": 544,
      "æ°´": 545,
      "é£ŀ": 546,
      "æµ·": 547,
      "å¾Ī": 548,
      "èī": 549,
      "èį": 550,
      "çĶ¨": 551,
      "å¿µ": 552,
      "éĨ": 553,
      "æľª": 554,
      "æīį": 555,
      "å§": 556,
      "çķĮ": 557,
      "éľ": 558,
      "æĸ¹": 559,
      "å¤±": 560,
      "æĢķ": 561,
      "æŁ": 562,
      "å°ĳ": 563,
      "åģļ": 564,
      "è¯Ŀ": 565,
      "æŀľ": 566,
      "å®¶": 567,
      "ll": 568,
      "åıĳ": 569,
      "åķ¦": 570,
      "âĢ": 571,
      "ç´": 572,
      "èĥ": 573,
      "æ¶": 574,
      "è§ī": 575,
      "ä¸ĸçķĮ": 576,
      "ãĢĤ": 577,
      "é¦": 578,
      "æĢ»": 579,
      "æŃ¤": 580,
      "çĲ": 581,
      "åĳĢ": 582,
      "æĺ¯æĪĳ": 583,
      "ç«": 584,
      "çĹĽ": 585,
      "å¥¹": 586,
      "çĪ±çļĦ": 587,
      "åĶ±": 588,
      "æ¸©": 589,
      "åĬ¨": 590,
      "è¢«": 591,
      "æ°Ķ": 592,
      "ä¸įè¦ģ": 593,
      "çŁ¥éģĵ": 594,
      "å±±": 595,
      "éħ": 596,
      "åĦ": 597,
      "Ġd": 598,
      "å®ļ": 599,
      "ing": 600,
      "åĦ¿": 601,
      "æ¬¡": 602,
      "æ»¡": 603,
      "æĺ¥": 604,
      "èĭ¦": 605,
      "Ġthe": 606,
      "åĲĳ": 607,
      "çĪ±æĥħ": 608,
      "ç¦ı": 609,
      "çĸ": 610,
      "èĻ": 611,
      "æĢĿ": 612,
      "ä¸ĢåĪ": 613,
      "Ġf": 614,
      "ä¸İ": 615,
      "éĹ®": 616,
      "äºĽ": 617,
      "æ¸ħ": 618,
      "æĺŁ": 619,
      "ä¿¡": 620,
      "æ¬¢": 621,
      "æ°¸è¿ľ": 622,
      "éĩį": 623,
      "ãĤ": 624,
      "è®¸": 625,
      "æĪĳä¸į": 626,
      "çĪ±ä½ł": 627,
      "èĢĮ": 628,
      "å¿Ĩ": 629,
      "it": 630,
      "ha": 631,
      "ĠI": 632,
      "åĺ": 633,
      "è¶Ĭ": 634,
      "ç®Ĺ": 635,
      "åħ¨": 636,
      "èĤ": 637,
      "åıĹ": 638,
      "ow": 639,
      "æĽ´": 640,
      "ä¾Ŀ": 641,
      "æĳ": 642,
      "åĢĻ": 643,
      "åİŁ": 644,
      "éĶĻ": 645,
      "Ġc": 646,
      "åĳ½": 647,
      "ä¸Ģèµ·": 648,
      "ä¸ºä½ł": 649,
      "æģĭ": 650,
      "æī¾": 651,
      "å°½": 652,
      "èī²": 653,
      "å¹¸": 654,
      "Ġg": 655,
      "æĬ±": 656,
      "åĽł": 657,
      "å®ŀ": 658,
      "åĸľ": 659,
      "Ġä½ł": 660,
      "ay": 661,
      "åĬĽ": 662,
      "åįĥ": 663,
      "æĢİä¹Ī": 664,
      "æĩ": 665,
      "åı£": 666,
      "ä¸įä¼ļ": 667,
      "ä¹ĭ": 668,
      "åĲ§": 669,
      "ç¢": 670,
      "å¾Ģ": 671,
      "è¯¥": 672,
      "å¾ħ": 673,
      "æĭ¥": 674,
      "¨Ģ": 675,
      "çº¢": 676,
      "à½": 677,
      "åŃ¤": 678,
      "åĨ·": 679,
      "äºİ": 680,
      "ä½Ĩ": 681,
      "å¯Ĥ": 682,
      "å°Ĩ": 683,
      "æį": 684,
      "ä½ı": 685,
      "è½¬": 686,
      "å¦Ĥæŀľ": 687,
      "æ´»": 688,
      "å¸¦": 689,
      "èĢģ": 690,
      "æħ¢": 691,
      "åĵª": 692,
      "Ġn": 693,
      "æĺ¯ä½ł": 694,
      "nd": 695,
      "æĢĢ": 696,
      "éĻª": 697,
      "Ġme": 698,
      "åĲĮ": 699,
      "åįķ": 700,
      "çª": 701,
      "å®ī": 702,
      "è¡Į": 703,
      "Ġä¸į": 704,
      "çģ«": 705,
      "ç§į": 706,
      "å¿«ä¹Ĳ": 707,
      "éļı": 708,
      "è£": 709,
      "åģľ": 710,
      "é«": 711,
      "å¥³": 712,
      "åŁ": 713,
      "ä¸½": 714,
      "å²": 715,
      "åı¯ä»¥": 716,
      "å¤Ł": 717,
      "è¨Ģ": 718,
      "me": 719,
      "is": 720,
      "ç¿": 721,
      "è·Ł": 722,
      "ç»Ī": 723,
      "é«ĺ": 724,
      "ä¸ĢåĪĩ": 725,
      "éĿĻ": 726,
      "åĩł": 727,
      "æı": 728,
      "æ³ķ": 729,
      "å¯ŀ": 730,
      "é¡": 731,
      "å¹¸ç¦ı": 732,
      "åĭ": 733,
      "ç»ĵ": 734,
      "ä¸įèĥ½": 735,
      "å®ĥ": 736,
      "æĻļ": 737,
      "æĤ²": 738,
      "å¨": 739,
      "çĽ´": 740,
      "è¯·": 741,
      "æµª": 742,
      "ä½ľ": 743,
      "çĭ¬": 744,
      "è¿·": 745,
      "é£ĺ": 746,
      "ä¸ĩ": 747,
      "äºĳ": 748,
      "Ġto": 749,
      "ove": 750,
      "é»ĺ": 751,
      "éĺ³": 752,
      "èĭ¥": 753,
      "è¿ĺæĺ¯": 754,
      "åĵŃ": 755,
      "å¯Ĥå¯ŀ": 756,
      "äº²": 757,
      "äº®": 758,
      "æ®": 759,
      "or": 760,
      "éª": 761,
      "è¿Ļæł·": 762,
      "çīĩ": 763,
      "å½±": 764,
      "çĲĨ": 765,
      "éĿĴ": 766,
      "æīĵ": 767,
      "æĹ©": 768,
      "ar": 769,
      "ï¼ī": 770,
      "é»ĳ": 771,
      "ä¸įæĺ¯": 772,
      "åĲ¦": 773,
      "çĶ±": 774,
      "ï¼Ī": 775,
      "æĩĤ": 776,
      "éĴ": 777,
      "æĹ¶åĢĻ": 778,
      "æ²ī": 779,
      "åºķ": 780,
      "éŁ": 781,
      "çħ": 782,
      "æĸ°": 783,
      "æŁĶ": 784,
      "å®¹": 785,
      "å¤ļå°ĳ": 786,
      "çĥŃ": 787,
      "åĲ¹": 788,
      "çļĦå¿ĥ": 789,
      "çĿĢä½ł": 790,
      "èĮ": 791,
      "ä¸¤": 792,
      "æīĢæľī": 793,
      "ä¸Ģå¤©": 794,
      "åľº": 795,
      "èĦ¸": 796,
      "çļĦäºº": 797,
      "æĪĳçļĦå¿ĥ": 798,
      "æķħ": 799,
      "è§£": 800,
      "æĪĳå¿ĥ": 801,
      "å¿ħ": 802,
      "ç¾İä¸½": 803,
      "éĨī": 804,
      "åıĮ": 805,
      "çľŁçļĦ": 806,
      "ä¼¼": 807,
      "å¾®": 808,
      "ç¥ŀ": 809,
      "æŃ¥": 810,
      "æ¯Ķ": 811,
      "ee": 812,
      "åĤ": 813,
      "çīµ": 814,
      "èģ": 815,
      "å·²ç»ı": 816,
      "å°±æĺ¯": 817,
      "ç´§": 818,
      "æĹ¶éĹ´": 819,
      "ç½": 820,
      "ç³": 821,
      "å®Į": 822,
      "å¤Ħ": 823,
      "åı«": 824,
      "ä½łè¯´": 825,
      "éĤ£ä¹Ī": 826,
      "æļĸ": 827,
      "åıĭ": 828,
      "ä¼´": 829,
      "å§ĭ": 830,
      "åķ¦åķ¦": 831,
      "æİī": 832,
      "ä¸ĢçĶŁ": 833,
      "é©": 834,
      "ç»ĻæĪĳ": 835,
      "éŁ³": 836,
      "ä¸įåĨį": 837,
      "åĳĬ": 838,
      "æ¼«": 839,
      "æ±Ĥ": 840,
      "å¹³": 841,
      "us": 842,
      "çĶľ": 843,
      "éħĴ": 844,
      "æķ¢": 845,
      "ç®¡": 846,
      "éĨĴ": 847,
      "èİ": 848,
      "åħ³": 849,
      "è¯ī": 850,
      "å¤ĸ": 851,
      "ä¸ĢçĤ¹": 852,
      "åĽŀå¿Ĩ": 853,
      "ä¸Ģä¸ªäºº": 854,
      "éľĢ": 855,
      "è¿½": 856,
      "ç¦»å¼Ģ": 857,
      "ä¹ħ": 858,
      "æ¡": 859,
      "è¿Ľ": 860,
      "éģĩ": 861,
      "âĢ¦": 862,
      "æĦŁè§ī": 863,
      "çı": 864,
      "Ġo": 865,
      "çİ°åľ¨": 866,
      "åħ¥": 867,
      "è±": 868,
      "éŃ": 869,
      "gh": 870,
      "ä¸ī": 871,
      "åºĶ": 872,
      "åĲĹ": 873,
      "çł": 874,
      "æĽ¾ç»ı": 875,
      "åıªæĺ¯": 876,
      "èĹ": 877,
      "åıªæľī": 878,
      "æľŁ": 879,
      "hat": 880,
      "å¦Ī": 881,
      "Ġmy": 882,
      "Ġbe": 883,
      "åł": 884,
      "ä½łæĺ¯": 885,
      "èľ": 886,
      "ä¸Ģæ¬¡": 887,
      "æĴ": 888,
      "åĪ»": 889,
      "åĳ¼": 890,
      "æģ¨": 891,
      "é¦ĸ": 892,
      "å¯»": 893,
      "é¸": 894,
      "æĪĳæĥ³": 895,
      "å¼º": 896,
      "è®©ä½ł": 897,
      "ä¸Ģæł·": 898,
      "æķ£": 899,
      "er": 900,
      "å¸¸": 901,
      "åħ¶": 902,
      "åĮĸ": 903,
      "åĳ³": 904,
      "å®³": 905,
      "ä»»": 906,
      "ç¼ĺ": 907,
      "å¤ªå¤ļ": 908,
      "ke": 909,
      "èĳ": 910,
      "å°±ç®Ĺ": 911,
      "çĮ": 912,
      "å¿ĥä¸Ń": 913,
      "é¦Ļ": 914,
      "éĽª": 915,
      "å¿ĺè®°": 916,
      "ä¹Łè®¸": 917,
      "çħ§": 918,
      "è·³": 919,
      "oo": 920,
      "èº«è¾¹": 921,
      "æĪĳè¦ģ": 922,
      "æĹ§": 923,
      "éĥ": 924,
      "æĪĸ": 925,
      "çĨ": 926,
      "è¿ĩåİ»": 927,
      "åı¥": 928,
      "ç§ĭ": 929,
      "et": 930,
      "å¿ĥéĩĮ": 931,
      "æľĢåĲİ": 932,
      "ea": 933,
      "ç¢İ": 934,
      "åĽłä¸º": 935,
      "....": 936,
      "å¸Į": 937,
      "åħ±": 938,
      "ä¸ºä½ķ": 939,
      "ä¸įåĪ°": 940,
      "è§Ĵ": 941,
      "çľ¼æ³ª": 942,
      "çĹ´": 943,
      "æŃ»": 944,
      "æ¸©æŁĶ": 945,
      "ä¹Łä¸į": 946,
      "æŃ£": 947,
      "ç²": 948,
      "èĹı": 949,
      "åĭĩ": 950,
      "ä»į": 951,
      "åĴĮä½ł": 952,
      "æĸŃ": 953,
      "æ¹": 954,
      "çĽ¸ä¿¡": 955,
      "Ġlove": 956,
      "éľĢè¦ģ": 957,
      "ver": 958,
      "éĵ": 959,
      "éº": 960,
      "åģĩ": 961,
      "æĪĳæĺ¯": 962,
      "å½©": 963,
      "æ¥": 964,
      "es": 965,
      "ç©¿": 966,
      "åľ¨ä½ł": 967,
      "ä½¿": 968,
      "èĪŀ": 969,
      "æľĭ": 970,
      "åľ¨è¿Ļ": 971,
      "ç»Ļä½ł": 972,
      "çĪ±æĪĳ": 973,
      "å²ģ": 974,
      "å¢": 975,
      "è®²": 976,
      "å¸ĮæľĽ": 977,
      "çĥŁ": 978,
      "èĥĮ": 979,
      "å¼ĥ": 980,
      "çŃīå¾ħ": 981,
      "éĿł": 982,
      "åº¦": 983,
      "åĸľæ¬¢": 984,
      "èĵ": 985,
      "åŁİ": 986,
      "igh": 987,
      "è¯Ń": 988,
      "æī¿": 989,
      "åįĬ": 990,
      "æĶ¹": 991,
      "ä¸ºäºĨ": 992,
      "æľĭåıĭ": 993,
      "æĢ»æĺ¯": 994,
      "by": 995,
      "è£ħ": 996,
      "è¸": 997,
      "çĿ¡": 998,
      "çļĦçĪ±": 999,
      "è¿ĳ": 1000,
      "å®Ī": 1001,
      "åįģ": 1002,
      "çĶ·": 1003,
      "ç»Ŀ": 1004,
      "èĮ«": 1005,
      "~~": 1006,
      "çĭĤ": 1007,
      "åĪĿ": 1008,
      "ĠĠ": 1009,
      "çĶŁæ´»": 1010,
      "ä»Ĭå¤©": 1011,
      "åĲį": 1012,
      "æļĹ": 1013,
      "æ²³": 1014,
      "å¼Ģå§ĭ": 1015,
      "ä¸įæĥ³": 1016,
      "ä¹±": 1017,
      "æ¨": 1018,
      "Ġit": 1019,
      "æį¢": 1020,
      "ä¸ĢçĽ´": 1021,
      "æĺİçĻ½": 1022,
      "åŃ¦": 1023,
      "æ»´": 1024,
      "çģ¯": 1025,
      "æĲ": 1026,
      "åĲ»": 1027,
      "æĢĿå¿µ": 1028,
      "æ¸¸": 1029,
      "ä»£": 1030,
      "è¥": 1031,
      "ä¹¡": 1032,
      "Ġh": 1033,
      "æĥľ": 1034,
      "è®¤": 1035,
      "Ġon": 1036,
      "åĨĻ": 1037,
      "ä»½": 1038,
      "éĢģ": 1039,
      "çĿĢæĪĳ": 1040,
      "è¿ĺæľī": 1041,
      "çł´": 1042,
      "å¼ł": 1043,
      "è°¢": 1044,
      "é¥": 1045,
      "åıªè¦ģ": 1046,
      "æ¸Ĳ": 1047,
      "'t": 1048,
      "æľªæĿ¥": 1049,
      "æ·¡": 1050,
      "æ¶Ī": 1051,
      "éĢı": 1052,
      "Ġp": 1053,
      "å¤©ç©º": 1054,
      "çĶŁåĳ½": 1055,
      "è¡Ĺ": 1056,
      "åĹ": 1057,
      "åľ¨æĪĳ": 1058,
      "å¿į": 1059,
      "æĪĳä¼ļ": 1060,
      "æĹłæ³ķ": 1061,
      "åĲĪ": 1062,
      "èįī": 1063,
      "ld": 1064,
      "Ġk": 1065,
      "çº¿": 1066,
      "åĿļ": 1067,
      "çªĹ": 1068,
      "Ġin": 1069,
      "å¿ĺäºĨ": 1070,
      "çŀ": 1071,
      "èľľ": 1072,
      "ç»Ń": 1073,
      "æ®µ": 1074,
      "æĭ¥æĬ±": 1075,
      "ä½ĵ": 1076,
      "è¥¿": 1077,
      "ight": 1078,
      "è¡¨": 1079,
      "è®°å¾Ĺ": 1080,
      "éĹ¨": 1081,
      "åĨħ": 1082,
      "ä¹İ": 1083,
      "æİ¥": 1084,
      "èª": 1085,
      "åŃ¤åįķ": 1086,
      "å½Ĵ": 1087,
      "éĹª": 1088,
      "ot": 1089,
      "èĵĿ": 1090,
      "æº": 1091,
      "à¼": 1092,
      "ä¸ºä»Ģä¹Ī": 1093,
      "é©¬": 1094,
      "æľº": 1095,
      "åĳĬè¯ī": 1096,
      "ï½": 1097,
      "æ½": 1098,
      "éģį": 1099,
      "æĿ¯": 1100,
      "æģ¯": 1101,
      "æĨ": 1102,
      "çĶµ": 1103,
      "æĥ³ä½ł": 1104,
      "çľ¼çĿ": 1105,
      "é»Ħ": 1106,
      "å¤±åİ»": 1107,
      "å¨ĺ": 1108,
      "çĽ®": 1109,
      "éĺ®": 1110,
      "èĳĹ": 1111,
      "éģĹ": 1112,
      "å°±åĥı": 1113,
      "æĤĶ": 1114,
      "éĥ½æĺ¯": 1115,
      "æħ¢æħ¢": 1116,
      "ç¨": 1117,
      "aby": 1118,
      "æĺ¯åĲ¦": 1119,
      "æĮĤ": 1120,
      "'s": 1121,
      "çĶ»": 1122,
      "çķĻä¸ĭ": 1123,
      "è½»è½»": 1124,
      "åĵ¦": 1125,
      "æľīä½ł": 1126,
      "æĥ³è¦ģ": 1127,
      "è¿ĩçļĦ": 1128,
      "åŃ©": 1129,
      "çľ¼çĿĽ": 1130,
      "å°ĺ": 1131,
      "æĳĩ": 1132,
      "è¿ŀ": 1133,
      "æĢ¨": 1134,
      "çĻ¾": 1135,
      "æĭī": 1136,
      "åħ¶å®ŀ": 1137,
      "äº¦": 1138,
      "æĶ¶": 1139,
      "éĿŀ": 1140,
      "æĺİå¤©": 1141,
      "...": 1142,
      "æľµ": 1143,
      "ome": 1144,
      "You": 1145,
      "å½¼": 1146,
      "äººçļĦ": 1147,
      "èĪį": 1148,
      "ä¸įçŁ¥": 1149,
      "è±¡": 1150,
      "çģµ": 1151,
      "åĬł": 1152,
      "åĽ½": 1153,
      "æĹģ": 1154,
      "½çĦ¶": 1155,
      "æĽ²": 1156,
      "èħ": 1157,
      "çĬ": 1158,
      "åģ·": 1159,
      "Ġhe": 1160,
      "å¿§": 1161,
      "è¿Ĳ": 1162,
      "å¹»": 1163,
      "åĮĨ": 1164,
      "æĺ¨": 1165,
      "ä½łä¸į": 1166,
      "æĥ³èµ·": 1167,
      "å¦Ĥä½ķ": 1168,
      "èĩªçĶ±": 1169,
      "äººçĶŁ": 1170,
      "éĢļ": 1171,
      "èĦļ": 1172,
      "çĩ": 1173,
      "æĪı": 1174,
      "åŃĹ": 1175,
      "å¿ĥçļĦ": 1176,
      "èį¡": 1177,
      "äº¤": 1178,
      "ä¾¿": 1179,
      "ï½ŀ": 1180,
      "æ¸©æļĸ": 1181,
      "åĨ°": 1182,
      "æĪĳåľ¨": 1183,
      "éĥ½ä¸į": 1184,
      "éĤ£äºĽ": 1185,
      "åıį": 1186,
      "le": 1187,
      "**": 1188,
      "è½¦": 1189,
      "Ġä¸Ģ": 1190,
      "å¹²": 1191,
      "èĬĤ": 1192,
      "çıį": 1193,
      "ä¸įäºĨ": 1194,
      "ä¹ł": 1195,
      "ä½Ľ": 1196,
      "æķħäºĭ": 1197,
      "æĢª": 1198,
      "æľ¬": 1199,
      "éĢĥ": 1200,
      "éģ¥": 1201,
      "æĦģ": 1202,
      "åĽŀå¤´": 1203,
      "Ġe": 1204,
      "å¯¹æĪĳ": 1205,
      "åĤ»": 1206,
      "è¿Ļä¸ª": 1207,
      "æĺĵ": 1208,
      "åĽĽ": 1209,
      "åįİ": 1210,
      "ä»¥åĲİ": 1211,
      "çŃĶ": 1212,
      "æĤĦ": 1213,
      "æ¢¦æĥ³": 1214,
      "éĤ£ä¸ª": 1215,
      "Ġand": 1216,
      "æķ°": 1217,
      "à¼ĭ": 1218,
      "ï¼ģ": 1219,
      "åģı": 1220,
      "éĺ¿": 1221,
      "åĨ³": 1222,
      "åıĺæĪĲ": 1223,
      "é¢Ĺ": 1224,
      "ä¸ľ": 1225,
      "ç«Ļ": 1226,
      "éĿĴæĺ¥": 1227,
      "åĢĴ": 1228,
      "ä¼ł": 1229,
      "æĦŁæĥħ": 1230,
      "åĸĿ": 1231,
      "ĠL": 1232,
      "al": 1233,
      "ç´¯": 1234,
      "æĻ¯": 1235,
      "çļĦä½ł": 1236,
      "ç¥Ŀ": 1237,
      "Ġth": 1238,
      "åŃĺ": 1239,
      "æ²Ļ": 1240,
      "ä»¤": 1241,
      "åĲ¸": 1242,
      "èĻļ": 1243,
      "åĵİ": 1244,
      "æĪĳä¹Ł": 1245,
      "çĥ¦": 1246,
      "èĥ½å¤Ł": 1247,
      "åĨįè§ģ": 1248,
      "çĽ¼": 1249,
      "å¾®ç¬ĳ": 1250,
      "ç»Ĩ": 1251,
      "å¥ĩ": 1252,
      "çļĦæĹ¶åĢĻ": 1253,
      "åįĹ": 1254,
      "æĦ¿æĦı": 1255,
      "åİŁæĿ¥": 1256,
      "æĹ¶åħī": 1257,
      "Oh": 1258,
      "æ±Ł": 1259,
      "ä¸įè§ģ": 1260,
      "ä½łåľ¨": 1261,
      "åľ°æĸ¹": 1262,
      "ut": 1263,
      "è¯·ä½ł": 1264,
      "ç»§": 1265,
      "äºĨä½ł": 1266,
      "è¯º": 1267,
      "çº¦": 1268,
      "åĻ": 1269,
      "å¤į": 1270,
      "æĿ¡": 1271,
      "åĨ¬": 1272,
      "now": 1273,
      "Ġli": 1274,
      "å¤ļä¹Ī": 1275,
      "Ġyour": 1276,
      "éŃĤ": 1277,
      "ãģĦ": 1278,
      "åĵªéĩĮ": 1279,
      "èĪ¬": 1280,
      "èĨ": 1281,
      "çļĦæĪĳ": 1282,
      "çĪ±ä¸Ĭ": 1283,
      "æĥ¯": 1284,
      "æľĿ": 1285,
      "éĢī": 1286,
      "ä¾ĿçĦ¶": 1287,
      "èİ«": 1288,
      "Ġæľī": 1289,
      "éĢĢ": 1290,
      "å¹¶": 1291,
      "Ġst": 1292,
      "å²ģæľĪ": 1293,
      "åĵĪ": 1294,
      "åĲĥ": 1295,
      "çĶĺ": 1296,
      "ç»§ç»Ń": 1297,
      "æĵ": 1298,
      "çľĭè§ģ": 1299,
      "çĥ§": 1300,
      "ä¸ºæĪĳ": 1301,
      "Ġr": 1302,
      "ä¸»": 1303,
      "è®°å¿Ĩ": 1304,
      "å¯¹ä½ł": 1305,
      "æĪĺ": 1306,
      "as": 1307,
      "æ¢¦éĩĮ": 1308,
      "ic": 1309,
      "æĶ¹åıĺ": 1310,
      "ill": 1311,
      "åŃ¤çĭ¬": 1312,
      "åī©": 1313,
      "at": 1314,
      "æĺ¯ä¸Ģ": 1315,
      "è¶³": 1316,
      "é£İåĲ¹": 1317,
      "Ġu": 1318,
      "æĶ¾å¼ĥ": 1319,
      "ä¿Ŀ": 1320,
      "ä½łæĪĳ": 1321,
      "ç³»": 1322,
      "æ¨¡": 1323,
      "å¥Ī": 1324,
      "åĵ¥": 1325,
      "ust": 1326,
      "æĭ¥æľī": 1327,
      "æ³¨": 1328,
      "ä¸įç®¡": 1329,
      "ä»ĺ": 1330,
      "éĺ³åħī": 1331,
      "æ´Ĵ": 1332,
      "æ¥ļ": 1333,
      "ç«Ł": 1334,
      "ç¼ł": 1335,
      "ä½İ": 1336,
      "å¤ı": 1337,
      "ä¸ŃçļĦ": 1338,
      "ç§Ĵ": 1339,
      "éĩĳ": 1340,
      "æ¼Ķ": 1341,
      "æ¯ıä¸ª": 1342,
      "å¸Ĥ": 1343,
      "æĥĬ": 1344,
      "Ġof": 1345,
      "ç¤": 1346,
      "æı¡": 1347,
      "ç»µ": 1348,
      "æķ´": 1349,
      "åıĳçİ°": 1350,
      "åĪ°åºķ": 1351,
      "ä¼¤å¿ĥ": 1352,
      "èģļ": 1353,
      "Ġå°±": 1354,
      "ir": 1355,
      "éĩı": 1356,
      "æĺ¯è°ģ": 1357,
      "å©": 1358,
      "èĻ½çĦ¶": 1359,
      "å¦ĤæŃ¤": 1360,
      "å¯Ĵ": 1361,
      "è¡£": 1362,
      "è¡Ģ": 1363,
      "åĳ¢": 1364,
      "åı°": 1365,
      "åĪ°ä½ł": 1366,
      "åĮĹ": 1367,
      "åºĶè¯¥": 1368,
      "ä¸Ģçīĩ": 1369,
      "åĶ¯": 1370,
      "éĢĶ": 1371,
      "åĿı": 1372,
      "çĶľèľľ": 1373,
      "æµ®": 1374,
      "se": 1375,
      "æĢ§": 1376,
      "ad": 1377,
      "åı¶": 1378,
      "èĩ³": 1379,
      "åŃ£": 1380,
      "æıĲ": 1381,
      "æ®ĭ": 1382,
      "éĺµ": 1383,
      "å¡": 1384,
      "æĪĳä»¬çļĦ": 1385,
      "æ£": 1386,
      "å§ĳ": 1387,
      "èĦ±": 1388,
      "ä»İåīį": 1389,
      "æŃ¢": 1390,
      "ä½łçļĦå¿ĥ": 1391,
      "ä¸Ŀ": 1392,
      "æłĳ": 1393,
      "å¦¹": 1394,
      "æ²īé»ĺ": 1395,
      "èĿ": 1396,
      "ly": 1397,
      "Ġis": 1398,
      "ĠB": 1399,
      "na": 1400,
      "æĤł": 1401,
      "æĬĬä½ł": 1402,
      "å½¼æŃ¤": 1403,
      "æĮĩ": 1404,
      "ake": 1405,
      "çĸ¯": 1406,
      "èªĵ": 1407,
      "çľŁå¿ĥ": 1408,
      "åĨ²": 1409,
      "Ġwan": 1410,
      "è¿ĺåľ¨": 1411,
      "éĩİ": 1412,
      "çĨŁ": 1413,
      "å¥Ķ": 1414,
      "ĠçĪ±": 1415,
      "çºµ": 1416,
      "éĴŁ": 1417,
      "Ġæĺ¯": 1418,
      "çİ©": 1419,
      "èĤ©": 1420,
      "Ġcan": 1421,
      "é£İéĽ¨": 1422,
      "æľŁå¾ħ": 1423,
      "Ġåľ¨": 1424,
      "åĪĨæīĭ": 1425,
      "âĢ¦âĢ¦": 1426,
      "éĿ¢å¯¹": 1427,
      "åı¹": 1428,
      "å»": 1429,
      "åı¤": 1430,
      "æĬĺ": 1431,
      "å¦Ĥä»Ĭ": 1432,
      "è®º": 1433,
      "è°ĵ": 1434,
      "åį³": 1435,
      "æĮ¥": 1436,
      "å§ĳå¨ĺ": 1437,
      "é¢ľ": 1438,
      "åıªèĥ½": 1439,
      "å¥½çļĦ": 1440,
      "è¿Ļä¹Ī": 1441,
      "æ³¢": 1442,
      "ä¹ī": 1443,
      "ä¹łæĥ¯": 1444,
      "id": 1445,
      "âĢĻ": 1446,
      "Ġknow": 1447,
      "æľīä¸Ģ": 1448,
      "æĭ©": 1449,
      "åĭĩæķ¢": 1450,
      "ä»İæĿ¥": 1451,
      "å®³æĢķ": 1452,
      "åħĪ": 1453,
      "åĸĶ": 1454,
      "åħ¬": 1455,
      "ĠM": 1456,
      "äºĮ": 1457,
      "è¿Ļä¸Ģ": 1458,
      "çĩĥ": 1459,
      "èº²": 1460,
      "ç¾İä¸½çļĦ": 1461,
      "and": 1462,
      "Ġha": 1463,
      "éļ¾éģĵ": 1464,
      "ä½łè¦ģ": 1465,
      "æĥħäºº": 1466,
      "æŁĲ": 1467,
      "åĿĲ": 1468,
      "ç²¾": 1469,
      "æĪĳçļĦçĪ±": 1470,
      "one": 1471,
      "æľīäºº": 1472,
      "ä¸Ģå®ļ": 1473,
      "åĺ¿": 1474,
      "èįĴ": 1475,
      "æ¯ıå¤©": 1476,
      "Ġwe": 1477,
      "ç¿»": 1478,
      "ãģ®": 1479,
      "çĥĤ": 1480,
      "çĹķ": 1481,
      "åıªæĥ³": 1482,
      "Ġgo": 1483,
      "Ġfor": 1484,
      "å¦Īå¦Ī": 1485,
      "æĮģ": 1486,
      "ä»¥ä¸º": 1487,
      "åĳ¼åĲ¸": 1488,
      "ä¸Ģåı¥": 1489,
      "è´Ł": 1490,
      "ä½łä¼ļ": 1491,
      "çļĦæŃĮ": 1492,
      "æīĢä»¥": 1493,
      "è¿ĩäºĨ": 1494,
      "çļĦè·¯": 1495,
      "all": 1496,
      "æĪĳçĪ±ä½ł": 1497,
      "æ¶¯": 1498,
      "åĪ°äºĨ": 1499,
      "ä¸Ģåľº": 1500,
      "Ġthat": 1501,
      "åľ¨ä¸Ģèµ·": 1502,
      "ä¸įåı¯": 1503,
      "è¾¾": 1504,
      "ith": 1505,
      "åģ¶": 1506,
      "çĳ": 1507,
      "è¿¹": 1508,
      "ç¬¬": 1509,
      "ce": 1510,
      "æĥ³å¿µ": 1511,
      "éĩĮçļĦ": 1512,
      "ä¸İä½ł": 1513,
      "åĪ«äºº": 1514,
      "ä¸įåģľ": 1515,
      "ãģª": 1516,
      "æģ¼": 1517,
      "ç®Ģ": 1518,
      "æ³£": 1519,
      "æ¬²": 1520,
      "é²": 1521,
      "èı": 1522,
      "åĵĢ": 1523,
      "åıĬ": 1524,
      "åĵŁ": 1525,
      "çŀ¬": 1526,
      "éĢīæĭ©": 1527,
      "è§īå¾Ĺ": 1528,
      "ie": 1529,
      "Ġè°ģ": 1530,
      "æĪ¿": 1531,
      "å¿Ļ": 1532,
      "æĭħ": 1533,
      "æĤ²ä¼¤": 1534,
      "æĹ¥åŃĲ": 1535,
      "å±ŀ": 1536,
      "è¯ķ": 1537,
      "å®Ŀ": 1538,
      "éĥ¨": 1539,
      "çģ°": 1540,
      "ç£": 1541,
      "ä¸įè¿ĩ": 1542,
      "å¤ªéĺ³": 1543,
      "ä»ĸä»¬": 1544,
      "è·ĳ": 1545,
      "Ġj": 1546,
      "åĽ°": 1547,
      "'m": 1548,
      "æĢİæł·": 1549,
      "ï¼Ł": 1550,
      "art": 1551,
      "åĲĦ": 1552,
      "åĵį": 1553,
      "èī²çļĦ": 1554,
      "çĸĳ": 1555,
      "åĩī": 1556,
      "è§Ĩ": 1557,
      "è¿ľæĸ¹": 1558,
      "éļ¾è¿ĩ": 1559,
      "çĸ¼": 1560,
      "äº«": 1561,
      "è¿İ": 1562,
      "äºĶ": 1563,
      "å¼±": 1564,
      "ry": 1565,
      "å¯Ĩ": 1566,
      "çĪ¸": 1567,
      "åĽŀæĿ¥": 1568,
      "èĢħ": 1569,
      "Ġä¹Ł": 1570,
      "çĵ": 1571,
      "åłĤ": 1572,
      "çŃīä½ł": 1573,
      "åŁĭ": 1574,
      "ä»ĺåĩº": 1575,
      "ç»Īäºİ": 1576,
      "è¿Ļæĺ¯": 1577,
      "And": 1578,
      "ä¸įèµ·": 1579,
      "æī§": 1580,
      "ç»¿": 1581,
      "åĮħ": 1582,
      "æĹłå¥Ī": 1583,
      "æ¿": 1584,
      "çŁŃ": 1585,
      "ç»ĵæŀľ": 1586,
      "é¡¾": 1587,
      "çī©": 1588,
      "ä¸įåľ¨": 1589,
      "åıĺå¾Ĺ": 1590,
      "æĬĬæĪĳ": 1591,
      "éĴ±": 1592,
      "åĬª": 1593,
      "å¼¯": 1594,
      "åĪ©": 1595,
      "ä¸ĬçļĦ": 1596,
      "éĻĲ": 1597,
      "æĬ¤": 1598,
      "çº¯": 1599,
      "ç¬ĳå®¹": 1600,
      "å¤©æ¶¯": 1601,
      "åĬªåĬĽ": 1602,
      "å¾Ģäºĭ": 1603,
      "æ¼Ĥ": 1604,
      "çıįæĥľ": 1605,
      "èĢ³": 1606,
      "èµ°è¿ĩ": 1607,
      "æī¿è¯º": 1608,
      "Ġi": 1609,
      "è¸ı": 1610,
      "å±Ģ": 1611,
      "è¯Ĩ": 1612,
      "èº«æĹģ": 1613,
      "å¾ĹåĪ°": 1614,
      "æľīäºĽ": 1615,
      "æľīå¤ļ": 1616,
      "ä½į": 1617,
      "åľĨ": 1618,
      "é¸Ł": 1619,
      "èĭį": 1620,
      "ãģ¦": 1621,
      "éĤ£ä¸Ģ": 1622,
      "çªģ": 1623,
      "å£°éŁ³": 1624,
      "çļĦæĥħ": 1625,
      "æĪĳçŁ¥éģĵ": 1626,
      "éļĲ": 1627,
      "åĺ´": 1628,
      "ä¸įå¿ħ": 1629,
      "å«": 1630,
      "åĽŀåĪ°": 1631,
      "ĠS": 1632,
      "æĪĳå°±": 1633,
      "æħ°": 1634,
      "åĲĽ": 1635,
      "ĠD": 1636,
      "æĹħ": 1637,
      "çĪ±è¿ĩ": 1638,
      "å¥³äºº": 1639,
      "å¢ĥ": 1640,
      "ä¸įä½ı": 1641,
      "ĠæĹł": 1642,
      "æŀģ": 1643,
      "åĪ«åĨį": 1644,
      "èĥ¸": 1645,
      "æĳĨ": 1646,
      "çĲĥ": 1647,
      "é¦ĸæŃĮ": 1648,
      "å¤ľéĩĮ": 1649,
      "èĦĳ": 1650,
      "æĪĳè¯´": 1651,
      "éĻªä½ł": 1652,
      "ä»İæŃ¤": 1653,
      "å¼ķ": 1654,
      "åĢ¾": 1655,
      "you": 1656,
      "Ġdo": 1657,
      "ç¨ĭ": 1658,
      "ä½łçļĦçĪ±": 1659,
      "çļĦæ¢¦": 1660,
      "å®ģ": 1661,
      "out": 1662,
      "ä½ķå¿ħ": 1663,
      "æ¹ĸ": 1664,
      "ç»ķ": 1665,
      "çģŃ": 1666,
      "å·¦": 1667,
      "ime": 1668,
      "æĿ¾": 1669,
      "ä»¿": 1670,
      "æ½®": 1671,
      "Ġè¿Ļ": 1672,
      "æł¼": 1673,
      "om": 1674,
      "ä¹ĭéĹ´": 1675,
      "very": 1676,
      "çľł": 1677,
      "ç³Ĭ": 1678,
      "æĺ¨å¤©": 1679,
      "ç¥Ŀç¦ı": 1680,
      "ä¸įå¾Ĺ": 1681,
      "çļĦé£İ": 1682,
      "æīįèĥ½": 1683,
      "çĮľ": 1684,
      "äº²çĪ±çļĦ": 1685,
      "éĢ¢": 1686,
      "éģ¿": 1687,
      "Ġoh": 1688,
      "eah": 1689,
      "åŁİå¸Ĥ": 1690,
      "çŀ¬éĹ´": 1691,
      "çľĭåĪ°": 1692,
      "éĹŃ": 1693,
      "ong": 1694,
      "åĴĮæĪĳ": 1695,
      "çĽ¸æĢĿ": 1696,
      "Ġso": 1697,
      "æ¸ħæ¥ļ": 1698,
      "äºĨè§£": 1699,
      "éĺ´": 1700,
      "ãģŁ": 1701,
      "åĳĬè¯īæĪĳ": 1702,
      "èĭ±": 1703,
      "ĠW": 1704,
      "èµ·æĿ¥": 1705,
      "æĭ¿": 1706,
      "æĿŁ": 1707,
      "æķĻ": 1708,
      "éģĩè§ģ": 1709,
      "æµªæ¼«": 1710,
      "ä¸ĢåĪ»": 1711,
      "æĹ©å·²": 1712,
      "Ġéĥ½": 1713,
      "Ġall": 1714,
      "æĸ¹åĲĳ": 1715,
      "èĨĢ": 1716,
      "è¯ģ": 1717,
      "é»ĺé»ĺ": 1718,
      "ä»ĸçļĦ": 1719,
      "åĽŀå®¶": 1720,
      "åĵŃæ³£": 1721,
      "ç»ª": 1722,
      "æĦŁåĬ¨": 1723,
      "å¼Ģå¿ĥ": 1724,
      "hen": 1725,
      "éħ¸": 1726,
      "çĥĪ": 1727,
      "Ġre": 1728,
      "æµĵ": 1729,
      "oh": 1730,
      "è´¥": 1731,
      "äºĨæĪĳ": 1732,
      "Ġdon": 1733,
      "æľĪäº®": 1734,
      "éļĶ": 1735,
      "åº§": 1736,
      "Ġå¿ĥ": 1737,
      "ch": 1738,
      "æµģæµª": 1739,
      "æ¿Ģ": 1740,
      "ä¼ļæľī": 1741,
      "çľĭçĿĢ": 1742,
      "æĽ¿": 1743,
      "ãĥ": 1744,
      "è°Ī": 1745,
      "ç¾İçļĦ": 1746,
      "æīĢæľīçļĦ": 1747,
      "éĹ¹": 1748,
      "æ¸´": 1749,
      "éĢł": 1750,
      "æĹĭ": 1751,
      "æĢĢå¿µ": 1752,
      "ore": 1753,
      "ç®Ģåįķ": 1754,
      "åľ¨å¿ĥ": 1755,
      "Ġbaby": 1756,
      "åĶ¤": 1757,
      "th": 1758,
      "æĻ¨": 1759,
      "éģ¥è¿ľ": 1760,
      "èĴ": 1761,
      "åĽ´": 1762,
      "é¢ĺ": 1763,
      "èĬ±å¼Ģ": 1764,
      "å½ĵæĪĳ": 1765,
      "å¥½åĥı": 1766,
      "æĺ¥å¤©": 1767,
      "æł¹": 1768,
      "æĬĽ": 1769,
      "ç£¨": 1770,
      "un": 1771,
      "åĢŁ": 1772,
      "äºī": 1773,
      "æ·±æ·±": 1774,
      "åľ¨æĪĳå¿ĥ": 1775,
      "åĸĦ": 1776,
      "ä¸įçŁ¥éģĵ": 1777,
      "çĹĽèĭ¦": 1778,
      "çĭ¬èĩª": 1779,
      "am": 1780,
      "éĢĲ": 1781,
      "æĺı": 1782,
      "ç§ĺ": 1783,
      "è¯Ĺ": 1784,
      "ä»ĬçĶŁ": 1785,
      "ĠT": 1786,
      "éº½": 1787,
      "æĤī": 1788,
      "çº·": 1789,
      "å´": 1790,
      "çī¹": 1791,
      "çĶ²": 1792,
      "ĠY": 1793,
      "æĵ¦": 1794,
      "æĨ¾": 1795,
      "æĥħçļĦ": 1796,
      "ä¸įåĩº": 1797,
      "åħħ": 1798,
      "ĠéĤ£": 1799,
      "éľ²": 1800,
      "ç¡": 1801,
      "æľĪåħī": 1802,
      "æĪĳè¿ĺ": 1803,
      "å°Ķ": 1804,
      "å¤ķ": 1805,
      "ä¸įæĩĤ": 1806,
      "çİĭ": 1807,
      "ç¼º": 1808,
      "åĩĨ": 1809,
      "åĺĽ": 1810,
      "éĻªæĪĳ": 1811,
      "é¡»": 1812,
      "ç¢°": 1813,
      "åŃĺåľ¨": 1814,
      "éŁ³ä¹Ĳ": 1815,
      "Ġåį´": 1816,
      "æ¼ł": 1817,
      "ä¸ĢäºĽ": 1818,
      "Ġwith": 1819,
      "çĥ¦æģ¼": 1820,
      "æīĢè°ĵ": 1821,
      "å¯»æī¾": 1822,
      "é¼": 1823,
      "åĲİæĤĶ": 1824,
      "é²ľ": 1825,
      "æ¯ıä¸Ģ": 1826,
      "en": 1827,
      "ä½łå°±": 1828,
      "æĺŁæĺŁ": 1829,
      "æī¬": 1830,
      "åŀ": 1831,
      "åĪº": 1832,
      "åľŁ": 1833,
      "éĽĦ": 1834,
      "çĽ¸çĪ±": 1835,
      "æĭį": 1836,
      "åĳ½è¿Ĳ": 1837,
      "åħį": 1838,
      "ä»Ĭå¤ľ": 1839,
      "ä¹¦": 1840,
      "åĭĩæ°Ķ": 1841,
      "æ³ªæ°´": 1842,
      "çŁ³": 1843,
      "éĽ¾": 1844,
      "åį°": 1845,
      "çĽ´åĪ°": 1846,
      "èĤ¯": 1847,
      "way": 1848,
      "èģĬ": 1849,
      "åı¯èĥ½": 1850,
      "ä¸¤ä¸ª": 1851,
      "æŀĹ": 1852,
      "åħ¨éĥ¨": 1853,
      "åİĨ": 1854,
      "è½®": 1855,
      "æ³¨å®ļ": 1856,
      "ä¸¢": 1857,
      "åı³": 1858,
      "åĤ²": 1859,
      "Ġla": 1860,
      "æĻ´": 1861,
      "èįīåİŁ": 1862,
      "æĭ¼": 1863,
      "æĪĳæľī": 1864,
      "æ»ĭ": 1865,
      "åĨ³å®ļ": 1866,
      "è°ħ": 1867,
      "èĻ¹": 1868,
      "æ¥¼": 1869,
      "ç©¶": 1870,
      "ck": 1871,
      "æ´ĭ": 1872,
      "æķĳ": 1873,
      "st": 1874,
      "æľ¨": 1875,
      "éªĹ": 1876,
      "æµģæ³ª": 1877,
      "åľ¨éĤ£": 1878,
      "æ¢¦ä¸Ń": 1879,
      "ain": 1880,
      "å½ĵåĪĿ": 1881,
      "éĩĬ": 1882,
      "ed": 1883,
      "æĸĹ": 1884,
      "æľį": 1885,
      "çģµéŃĤ": 1886,
      "çªģçĦ¶": 1887,
      "åĴ±": 1888,
      "å®¹æĺĵ": 1889,
      "åĩ¡": 1890,
      "æĦŁåıĹ": 1891,
      "çĲĨçĶ±": 1892,
      "éŃĶ": 1893,
      "åĪļ": 1894,
      "æĬ¹": 1895,
      "éĻĮ": 1896,
      "åĢ¼": 1897,
      "éĻ©": 1898,
      "çľī": 1899,
      "å¤©åľ°": 1900,
      "åĢ¦": 1901,
      "ĠåĨį": 1902,
      "ä¼Ĭ": 1903,
      "æĮ½": 1904,
      "åķ¦åķ¦åķ¦åķ¦": 1905,
      "å·®": 1906,
      "ç«¥": 1907,
      "ç¿Ķ": 1908,
      "èĮ«èĮ«": 1909,
      "çĬ¹": 1910,
      "è°ĥ": 1911,
      "è®©æĪĳä»¬": 1912,
      "ä¸Ģå£°": 1913,
      "ä¸įæķ¢": 1914,
      "éĿĻéĿĻ": 1915,
      "è¾Ī": 1916,
      "ä¸ĥ": 1917,
      "èĩªå·±çļĦ": 1918,
      "æĦĽ": 1919,
      "çľ¼ç¥ŀ": 1920,
      "å¸¦çĿĢ": 1921,
      "åĮĨåĮĨ": 1922,
      "ell": 1923,
      "ever": 1924,
      "å¹ķ": 1925,
      "å½¢": 1926,
      "çīµæĮĤ": 1927,
      "ä¹°": 1928,
      "è·Į": 1929,
      "æİĮ": 1930,
      "é¾": 1931,
      "ç¾¤": 1932,
      "ä¿©": 1933,
      "è®©äºº": 1934,
      "op": 1935,
      "ind": 1936,
      "èĥľ": 1937,
      "è·Łä½ł": 1938,
      "éº»": 1939,
      "ä½łçļĦæīĭ": 1940,
      "ä¸ĭçļĦ": 1941,
      "ä½ķæĹ¶": 1942,
      "è·Ŀ": 1943,
      "è¹": 1944,
      "å¤ĩ": 1945,
      "è®¡": 1946,
      "äººéĹ´": 1947,
      "ç±": 1948,
      "ç¦»åĪ«": 1949,
      "æĹłè®º": 1950,
      "å¤©å¤©": 1951,
      "ä½Ļ": 1952,
      "ä½łä¹Ł": 1953,
      "æ¶Īå¤±": 1954,
      "ĠA": 1955,
      "åľĪ": 1956,
      "ç»ĵå±Ģ": 1957,
      "èĪ¹": 1958,
      "è¾ĵ": 1959,
      "åħ´": 1960,
      "ä¼¤å®³": 1961,
      "ĠH": 1962,
      "ä¸ĸéĹ´": 1963,
      "æ¸´æľĽ": 1964,
      "æĦĪ": 1965,
      "èĢĢ": 1966,
      "é¬": 1967,
      "æĺ¯æĪĳçļĦ": 1968,
      "åĪĨå¼Ģ": 1969,
      "ood": 1970,
      "æģ©": 1971,
      "åıĮæīĭ": 1972,
      "çľĭä½ł": 1973,
      "éĶģ": 1974,
      "å±ŀäºİ": 1975,
      "åħ«": 1976,
      "çĽĽ": 1977,
      "æ²¡æľīäºº": 1978,
      "Ġup": 1979,
      "Ùī": 1980,
      "çĨŁæĤī": 1981,
      "å¾Īå¤ļ": 1982,
      "åĽŃ": 1983,
      "é»ĳå¤ľ": 1984,
      "åĶ¯ä¸Ģ": 1985,
      "ç¿ħ": 1986,
      "åĪĨç¦»": 1987,
      "éķľ": 1988,
      "ä¸įå¤Ł": 1989,
      "è§¦": 1990,
      "åĿļå¼º": 1991,
      "çĶ·äºº": 1992,
      "è´µ": 1993,
      "ç«ĭ": 1994,
      "çĦ¶åĲİ": 1995,
      "åı·": 1996,
      "å·´": 1997,
      "å¿ĺæİī": 1998,
      "áł": 1999,
      "çļĦè¯Ŀ": 2000,
      "ãģ«": 2001,
      "è°ģèĥ½": 2002,
      "è¢«ä½ł": 2003,
      "è°İ": 2004,
      "æİ©": 2005,
      "å¥ı": 2006,
      "çļĦå¤ľ": 2007,
      "åĪ¶": 2008,
      "ç¹": 2009,
      "æī¾åĪ°": 2010,
      "åĩºçİ°": 2011,
      "Ġare": 2012,
      "çĲ´": 2013,
      "The": 2014,
      "åŃ¦ä¼ļ": 2015,
      "è¯ļ": 2016,
      "å®īæħ°": 2017,
      "æŀ¯": 2018,
      "æ¹¿": 2019,
      "eel": 2020,
      "è§Ĥ": 2021,
      "ä¸´": 2022,
      "æľīä¸Ģå¤©": 2023,
      "Ġjust": 2024,
      "çĳ°": 2025,
      "æģĭçĪ±": 2026,
      "æİĴ": 2027,
      "æĶ¾æīĭ": 2028,
      "çĸ²": 2029,
      "å¥½å¥½": 2030,
      "ç½ª": 2031,
      "èĬ³": 2032,
      "å°Ŀ": 2033,
      "è¯´è¯Ŀ": 2034,
      "çļĦå°ı": 2035,
      "èµ¶": 2036,
      "éĻ¤": 2037,
      "èµ°äºĨ": 2038,
      "èĽ": 2039,
      "å°±è¿Ļæł·": 2040,
      "ould": 2041,
      "è·¯ä¸Ĭ": 2042,
      "ä¸įå¼Ģ": 2043,
      "ä¸ĢæĿ¯": 2044,
      "ä¸Ģé¢Ĺ": 2045,
      "æĤĦæĤĦ": 2046,
      "ä¸įæĢķ": 2047,
      "ãģĹ": 2048,
      "'ll": 2049,
      "çľ¼åīį": 2050,
      "éĢĿ": 2051,
      "éĻªä¼´": 2052,
      "è·ŁæĪĳ": 2053,
      "å®¢": 2054,
      "æķħä¹¡": 2055,
      "èĶ": 2056,
      "æĪĳéĥ½": 2057,
      "å¸ĥ": 2058,
      "ä»¿ä½Ľ": 2059,
      "æĪĳå·²": 2060,
      "ç¾İå¥½": 2061,
      "Ġsay": 2062,
      "Ġno": 2063,
      "ur": 2064,
      "å²¸": 2065,
      "ä½łåį´": 2066,
      "å¿½": 2067,
      "å§ĭç»Ī": 2068,
      "çļĦåľ°æĸ¹": 2069,
      "éģĹæĨ¾": 2070,
      "çºª": 2071,
      "Ġè¦ģ": 2072,
      "åĪĽ": 2073,
      "çİ«": 2074,
      "irl": 2075,
      "ĠG": 2076,
      "ä¸įè¦ģåĨį": 2077,
      "çļĦå¤©": 2078,
      "åĬŁ": 2079,
      "æļĤ": 2080,
      "èĸ": 2081,
      "own": 2082,
      "æĥĳ": 2083,
      "ä»įçĦ¶": 2084,
      "å¾Į": 2085,
      "ĠæĪĳçļĦ": 2086,
      "èĢ¶": 2087,
      "çİ«çĳ°": 2088,
      "ĠåĪ«": 2089,
      "åŃ©åŃĲ": 2090,
      "åıªåī©": 2091,
      "æŃĮåĶ±": 2092,
      "å¿ĥæĥħ": 2093,
      "çģ¿": 2094,
      "çĽ¸éģĩ": 2095,
      "æĪĳåį´": 2096,
      "éģĹå¿ĺ": 2097,
      "åı¦": 2098,
      "åįĪ": 2099,
      "æĿ¥çļĦ": 2100,
      "å¥¹çļĦ": 2101,
      "ive": 2102,
      "æ¯į": 2103,
      "åİĮ": 2104,
      "çĶ°": 2105,
      "æĭľ": 2106,
      "ä¸Ģç§į": 2107,
      "ĠN": 2108,
      "éĥİ": 2109,
      "å¹¸ç¦ıçļĦ": 2110,
      "åľ¨ä½łçļĦ": 2111,
      "usic": 2112,
      "é¹": 2113,
      "çĭł": 2114,
      "èŀ": 2115,
      "å¼Ł": 2116,
      "æĳ¸": 2117,
      "åİŁè°ħ": 2118,
      "åĪĩ": 2119,
      "ä¸įå¦Ĥ": 2120,
      "èī¯": 2121,
      "ä¸įçĶ¨": 2122,
      "å½·": 2123,
      "Ġsh": 2124,
      "fe": 2125,
      "æ¸Ĳæ¸Ĳ": 2126,
      "åĩŃ": 2127,
      "å½ĵä½ł": 2128,
      "ç©ºæ°Ķ": 2129,
      "è¾ĪåŃĲ": 2130,
      "åıĸ": 2131,
      "åĪĢ": 2132,
      "ç¹ģ": 2133,
      "åĩĿ": 2134,
      "èĦĨ": 2135,
      "åĸĬ": 2136,
      "è·Ŀç¦»": 2137,
      "åħħæ»¡": 2138,
      "çĪ±æĺ¯": 2139,
      "åıĮçľ¼": 2140,
      "ĺå¾": 2141,
      "æĢģ": 2142,
      "åĲ¬è§ģ": 2143,
      "è½¬èº«": 2144,
      "æľīçĤ¹": 2145,
      "èĿ¶": 2146,
      "åı«æĪĳ": 2147,
      "éĻ·": 2148,
      "ra": 2149,
      "éĽ¶": 2150,
      "å¼¹": 2151,
      "éħį": 2152,
      "çĪ±çļĦäºº": 2153,
      "æĿ¥æĿ¥": 2154,
      "æ¨¡æł·": 2155,
      "ä¹Łæĺ¯": 2156,
      "éĻħ": 2157,
      "çĪ±æĥħçļĦ": 2158,
      "åľ¨è¿ĻéĩĮ": 2159,
      "åī§": 2160,
      "åı¯æĺ¯": 2161,
      "æ»ĭåĳ³": 2162,
      "é±": 2163,
      "æĬķ": 2164,
      "é¢Ĩ": 2165,
      "éĻĮçĶŁ": 2166,
      "ĠC": 2167,
      "å¾ĺå¾": 2168,
      "é±¼": 2169,
      "å¾ĺå¾Ĭ": 2170,
      "ä¸įåİ»": 2171,
      "è¿ĻéĩĮ": 2172,
      "ç¯": 2173,
      "ãĢģ": 2174,
      "ä¸ĢæŃ¥": 2175,
      "èµı": 2176,
      "æĭĴ": 2177,
      "ä¸įæ¸ħ": 2178,
      "å¼Ħ": 2179,
      "åĪĴ": 2180,
      "ç«Ļåľ¨": 2181,
      "è½½": 2182,
      "æĹ¢": 2183,
      "æĮ¡": 2184,
      "æµħ": 2185,
      "ä¹Ŀ": 2186,
      "the": 2187,
      "ä¸Ģä¸ĸ": 2188,
      "ãĢĭ": 2189,
      "Ġè¿ĺ": 2190,
      "ç¦»åİ»": 2191,
      "od": 2192,
      "æ»ļ": 2193,
      "ç¤¼": 2194,
      "çģ¿çĥĤ": 2195,
      "ãĢĬ": 2196,
      "æİ¥åıĹ": 2197,
      "é¾Ļ": 2198,
      "åĩĦ": 2199,
      "åį³ä½¿": 2200,
      "éĤ£å¤©": 2201,
      "èªĵè¨Ģ": 2202,
      "æĶ¯": 2203,
      "æĪĳä»¬éĥ½": 2204,
      "ï¿": 2205,
      "æģĴ": 2206,
      "Ġtime": 2207,
      "è´¹": 2208,
      "éª¨": 2209,
      "ä¼ĳ": 2210,
      "ãĤĭ": 2211,
      "æ²¡æ³ķ": 2212,
      "æŃĮå£°": 2213,
      "æĢ¥": 2214,
      "é¢Ħ": 2215,
      "ç½Ĺ": 2216,
      "èĦļæŃ¥": 2217,
      "å®Įç¾İ": 2218,
      "ç¬Ķ": 2219,
      "æĺ¯ä¸įæĺ¯": 2220,
      "è§ħ": 2221,
      "Ġsee": 2222,
      "éļıé£İ": 2223,
      "æ¸¸æĪı": 2224,
      "Ġlike": 2225,
      "å¿ĥç¢İ": 2226,
      "æĪĸè®¸": 2227,
      "è´Ŀ": 2228,
      "å°½å¤´": 2229,
      "èµĸ": 2230,
      "åľ¨ä¹İ": 2231,
      "è¾Ľ": 2232,
      "çĽ¸è§ģ": 2233,
      "ä¼Ĺ": 2234,
      "å¢Ļ": 2235,
      "ä½łæĺ¯æĪĳ": 2236,
      "éĩĮéĿ¢": 2237,
      "Ġåıª": 2238,
      "å¤©è¾¹": 2239,
      "é£İä¸Ń": 2240,
      "Ġwant": 2241,
      "ĠåıĪ": 2242,
      "æ¶Į": 2243,
      "æīİ": 2244,
      "æĩĤå¾Ĺ": 2245,
      "ĠO": 2246,
      "ä¸įæĸŃ": 2247,
      "å°ģ": 2248,
      "ï¿½": 2249,
      "å·¥": 2250,
      "é£ŀç¿Ķ": 2251,
      "äºĨä¸Ģ": 2252,
      "ter": 2253,
      "æĶ¾å¼Ģ": 2254,
      "ä¸įåıĺ": 2255,
      "æŁĵ": 2256,
      "çĩĥçĥ§": 2257,
      "å¦Ļ": 2258,
      "çļĦèĦ¸": 2259,
      "ä¼¤æĤ²": 2260,
      "å°±è¦ģ": 2261,
      "æİ¨": 2262,
      "Ġwor": 2263,
      "Ġwill": 2264,
      "æĮ£": 2265,
      "æ´Ĺ": 2266,
      "å¼¥": 2267,
      "æ¡ĳ": 2268,
      "çļĦæĺ¯": 2269,
      "äºĴ": 2270,
      "æŃ¤åĪ»": 2271,
      "èĮ¶": 2272,
      "ç¥Ī": 2273,
      "åĲĳåīį": 2274,
      "å¹»æĥ³": 2275,
      "åįĩ": 2276,
      "å¤§å®¶": 2277,
      "æĸĩ": 2278,
      "çİ°å®ŀ": 2279,
      "æĸ°çļĦ": 2280,
      "åħĦ": 2281,
      "è®¨": 2282,
      "Ġwanna": 2283,
      "å¹½": 2284,
      "æ¸¡": 2285,
      "å»¶": 2286,
      "åĢ¼å¾Ĺ": 2287,
      "'re": 2288,
      "æľīä¸ª": 2289,
      "èĬ±åĦ¿": 2290,
      "èº«ä½ĵ": 2291,
      "ä¸¾": 2292,
      "çĮ®": 2293,
      "æĪĳæĦ¿": 2294,
      "æ¬£": 2295,
      "ä¸įåĲĮ": 2296,
      "ä»°": 2297,
      "åĲįåŃĹ": 2298,
      "ä¸ºè°ģ": 2299,
      "éĺĶ": 2300,
      "èŀį": 2301,
      "éĹ®æĪĳ": 2302,
      "æĢľ": 2303,
      "æħĮ": 2304,
      "ä¸įè¯¥": 2305,
      "æĪĳåıª": 2306,
      "ä¸įæĦ¿": 2307,
      "It": 2308,
      "Ġal": 2309,
      "çĸ¯çĭĤ": 2310,
      "åįĸ": 2311,
      "è¿ĺè¦ģ": 2312,
      "......": 2313,
      "åħŃ": 2314,
      "ç»ıè¿ĩ": 2315,
      "Ġwhat": 2316,
      "å¹´çļĦ": 2317,
      "èī³": 2318,
      "è¯į": 2319,
      "ä¸ĭåİ»": 2320,
      "****": 2321,
      "å¦Ĥæŀľä½ł": 2322,
      "å°ıå¿ĥ": 2323,
      "éĻį": 2324,
      "è¸ª": 2325,
      "å§Ĳ": 2326,
      "åı¯æĥľ": 2327,
      "çĲĨæĥ³": 2328,
      "éĹ¯": 2329,
      "åľ¨æĪĳçļĦ": 2330,
      "éŀ": 2331,
      "è´´": 2332,
      "å¿Ĺ": 2333,
      "çļĦä¸ĸçķĮ": 2334,
      "æ²¡äºº": 2335,
      "éªĦ": 2336,
      "Ġfeel": 2337,
      "é»ĳæļĹ": 2338,
      "çĪ±åĪ°": 2339,
      "éĤ£æł·": 2340,
      "éľľ": 2341,
      "å©Ĩ": 2342,
      "æĬļ": 2343,
      "âĢĶ": 2344,
      "åīĳ": 2345,
      "Ġæ²¡æľī": 2346,
      "æ¬ł": 2347,
      "éĿłè¿ĳ": 2348,
      "Ġæĥ³": 2349,
      "ãģĭ": 2350,
      "ä¸įåıĬ": 2351,
      "åĲī": 2352,
      "æ±Ĺ": 2353,
      "åĻ¢": 2354,
      "å°±è®©": 2355,
      "é¥®": 2356,
      "çĶļ": 2357,
      "åģ·åģ·": 2358,
      "å¯Ħ": 2359,
      "æĶ¾ä¸ĭ": 2360,
      "ç¼łç»µ": 2361,
      "éĹŃä¸Ĭ": 2362,
      "è¶ĬæĿ¥": 2363,
      "åĬŀ": 2364,
      "éķ¿å¤§": 2365,
      "åĳĨ": 2366,
      "å¿§ä¼¤": 2367,
      "ï½ŀï½ŀ": 2368,
      "æī¾ä¸įåĪ°": 2369,
      "åįĥä¸ĩ": 2370,
      "çīĽ": 2371,
      "çĿĢä½łçļĦ": 2372,
      "ç´§ç´§": 2373,
      "ä½łåı¯": 2374,
      "ho": 2375,
      "ç¿ħèĨĢ": 2376,
      "éĤ£æĺ¯": 2377,
      "è¯¯": 2378,
      "è¶ħ": 2379,
      "åİĭ": 2380,
      "ä¸Ģå¹´": 2381,
      "ĠæĪĳä»¬": 2382,
      "è½¯": 2383,
      "ä¾ĿæĹ§": 2384,
      "Ġåĥı": 2385,
      "å¥ĭ": 2386,
      "Ġnot": 2387,
      "ä½łæĺ¯åĲ¦": 2388,
      "æļ®": 2389,
      "è¦Ĩ": 2390,
      "è¶ĬæĿ¥è¶Ĭ": 2391,
      "æ¯ıæ¬¡": 2392,
      "ä¹ĭåĲİ": 2393,
      "æģ¶": 2394,
      "çªĹå¤ĸ": 2395,
      "åĩºæĿ¥": 2396,
      "hy": 2397,
      "æĬ¥": 2398,
      "ãĤĮ": 2399,
      "æĲģ": 2400,
      "é¬¼": 2401,
      "é¡¶": 2402,
      "èĴĻ": 2403,
      "è¿Ļä¸ĸçķĮ": 2404,
      "è°ģäºº": 2405,
      "ä»Ķ": 2406,
      "ä½łä»¬": 2407,
      "ç»ĵæĿŁ": 2408,
      "æ²§": 2409,
      "å¥½æĥ³": 2410,
      "ä¸Ģè·¯": 2411,
      "çĬ¯": 2412,
      "éĨĴæĿ¥": 2413,
      "å¤ķéĺ³": 2414,
      "é¼ĵ": 2415,
      "è®¸å¤ļ": 2416,
      "æĥħæĦ¿": 2417,
      "éĩįè¦ģ": 2418,
      "å®ģæĦ¿": 2419,
      "éĥ½ä¼ļ": 2420,
      "æĹłéĻĲ": 2421,
      "æīįä¼ļ": 2422,
      "æĹłäºº": 2423,
      "Ø§": 2424,
      "ĠçļĦ": 2425,
      "åĨįæ¬¡": 2426,
      "æī°": 2427,
      "ä¸Ģéģį": 2428,
      "çĽĸ": 2429,
      "èĭ±éĽĦ": 2430,
      "æĪĳèĩªå·±": 2431,
      "æĸ¼": 2432,
      "ç´¢": 2433,
      "æīĵå¼Ģ": 2434,
      "åĬĽéĩı": 2435,
      "ä¸ĭæĿ¥": 2436,
      "çĺ": 2437,
      "ear": 2438,
      "å°ıå°ı": 2439,
      "å°±åľ¨": 2440,
      "æĬ¬": 2441,
      "å½»": 2442,
      "éĶĻè¿ĩ": 2443,
      "å¤©ä¸ĭ": 2444,
      "çļ®": 2445,
      "æ°¸æģĴ": 2446,
      "ä¸įæĽ¾": 2447,
      "ç¾Ĭ": 2448,
      "ä½ĨæĦ¿": 2449,
      "æī¿åıĹ": 2450,
      "ä¸Ģç§Ĵ": 2451,
      "ä¼ª": 2452,
      "è°ģçļĦ": 2453,
      "be": 2454,
      "åģ¶å°Ķ": 2455,
      "éĥ½åľ¨": 2456,
      "Ġä½łçļĦ": 2457,
      "ãĤĤ": 2458,
      "å¥³åŃ©": 2459,
      "Ġçľĭ": 2460,
      "è§ĴèĲ½": 2461,
      "åģĩè£ħ": 2462,
      "å¾ĭ": 2463,
      "æĺ¥é£İ": 2464,
      "ç§ĺå¯Ĩ": 2465,
      "åĵªæĢķ": 2466,
      "çªĿ": 2467,
      "æ¾": 2468,
      "å±ķ": 2469,
      "æĺł": 2470,
      "åºĬ": 2471,
      "è¾ĥ": 2472,
      "èĥ½ä¸įèĥ½": 2473,
      "ang": 2474,
      "æĦŁåĪ°": 2475,
      "åĨ»": 2476,
      "åĳ¨": 2477,
      "çļĦèĬ±": 2478,
      "ä¸ºçĪ±": 2479,
      "la": 2480,
      "çĪ±å¾Ĺ": 2481,
      "éĺ»": 2482,
      "ä»Ģä¹Īéĥ½": 2483,
      "å®īéĿĻ": 2484,
      "çº¢å°ĺ": 2485,
      "Ġlet": 2486,
      "å¤©åłĤ": 2487,
      "éªĦåĤ²": 2488,
      "ine": 2489,
      "ä¸ŃåĽ½": 2490,
      "ç²¾å½©": 2491,
      "åģİ": 2492,
      "åĶĶ": 2493,
      "éĵģ": 2494,
      "eed": 2495,
      "ä½łæľī": 2496,
      "è®¤çľŁ": 2497,
      "èį£": 2498,
      "ä¹Łä¼ļ": 2499,
      "åħ³ç³»": 2500,
      "èµ°åĪ°": 2501,
      "æĮĳ": 2502,
      "æĺ¯ä½łçļĦ": 2503,
      "åĬ©": 2504,
      "çļĦäºĭ": 2505,
      "å±ĭ": 2506,
      "å¤©çļĦ": 2507,
      "åĨįä¹Ł": 2508,
      "åģľçķĻ": 2509,
      "æ¡¥": 2510,
      "éĩĩ": 2511,
      "å°±ä¼ļ": 2512,
      "æ¼«éķ¿": 2513,
      "ãĤĴ": 2514,
      "ĠæľĢ": 2515,
      "çĶµè¯Ŀ": 2516,
      "åĿļæĮģ": 2517,
      "åģıåģı": 2518,
      "ä»Ļ": 2519,
      "æľīæĹ¶": 2520,
      "æĿĢ": 2521,
      "æīĺ": 2522,
      "æ¨¡ç³Ĭ": 2523,
      "çľŁæĥħ": 2524,
      "çĽ¼æľĽ": 2525,
      "ä¸ĵ": 2526,
      "ãĤī": 2527,
      "æ°¸ä¸į": 2528,
      "æģĲ": 2529,
      "æ¡ĥ": 2530,
      "ä¸ĢçĤ¹çĤ¹": 2531,
      "ä¸įçĪ±": 2532,
      "åĴĸ": 2533,
      "çŃīåĪ°": 2534,
      "çĥŃæĥħ": 2535,
      "çļĦéĤ£": 2536,
      "åĿł": 2537,
      "Ġfr": 2538,
      "éľŀ": 2539,
      "ä½łè¿ĺ": 2540,
      "æĹłæĥħ": 2541,
      "èį¯": 2542,
      "å¸®": 2543,
      "æ¯Ľ": 2544,
      "é»Ħæĺı": 2545,
      "Ġ(": 2546,
      "æĬĵ": 2547,
      "åĽłä¸ºä½ł": 2548,
      "å±Ĥ": 2549,
      "ä¸Ģæ®µ": 2550,
      "æĦŁè°¢": 2551,
      "çĴ": 2552,
      "è¿Ļç§į": 2553,
      "ç¦ģ": 2554,
      "åĶĩ": 2555,
      "å¸¦èµ°": 2556,
      "æ³Ĭ": 2557,
      "Ġget": 2558,
      "çĶ»éĿ¢": 2559,
      "æİ§": 2560,
      "çº¸": 2561,
      "éĹ»": 2562,
      "åĵ©": 2563,
      "å®µ": 2564,
      "ä¸Ģæľµ": 2565,
      "ç¡®": 2566,
      "ä»·": 2567,
      "æ°ĳ": 2568,
      "æĹłæīĢè°ĵ": 2569,
      "ä¸ľè¥¿": 2570,
      "rou": 2571,
      "çļĦçĪ±æĥħ": 2572,
      "é½": 2573,
      "åıªè¦ģä½ł": 2574,
      "ä»¤æĪĳ": 2575,
      "æĢĢçĸĳ": 2576,
      "åļ": 2577,
      "å¿ĥçĹĽ": 2578,
      "æ¯ıä¸Ģå¤©": 2579,
      "åĨĽ": 2580,
      "å®Įåħ¨": 2581,
      "Ġone": 2582,
      "åķ°": 2583,
      "è°¢è°¢": 2584,
      "ãģ¨": 2585,
      "èĲ¨": 2586,
      "åħĦå¼Ł": 2587,
      "ĠF": 2588,
      "åįł": 2589,
      "åĩ»": 2590,
      "è´ª": 2591,
      "å¤±èĲ½": 2592,
      "å°ĸ": 2593,
      "å¥½åĲĹ": 2594,
      "here": 2595,
      "Ġgot": 2596,
      "âĢĿ": 2597,
      "pp": 2598,
      "åĽŀé¦ĸ": 2599,
      "Ġè¯´": 2600,
      "æİ¢": 2601,
      "æĪĳåĴĮä½ł": 2602,
      "Ġnow": 2603,
      "ä»»ä½ķ": 2604,
      "å¿ĺä¸įäºĨ": 2605,
      "Ġè®©": 2606,
      "to": 2607,
      "æĿ¥åĪ°": 2608,
      "ä¸įå¥½": 2609,
      "åį¡": 2610,
      "æĩĴ": 2611,
      "éĥģ": 2612,
      "æĪĳä¸Ģ": 2613,
      "We": 2614,
      "ãģ¯": 2615,
      "æĺİæĺİ": 2616,
      "å¹´è½»": 2617,
      "èĢĲ": 2618,
      "Ġba": 2619,
      "Ġï¼Ī": 2620,
      "çĽ¸éĢ¢": 2621,
      "å¸Ŀ": 2622,
      "å½©èĻ¹": 2623,
      "æĥ§": 2624,
      "ä½Ĩæĺ¯": 2625,
      "è¿Ļæł·çļĦ": 2626,
      "éĵ¶": 2627,
      "æ²¹": 2628,
      "çĻ½äºĳ": 2629,
      "çİ¯": 2630,
      "å°ļ": 2631,
      "æºľ": 2632,
      "åĨ·çļĦ": 2633,
      "æĪĳä¸įæĥ³": 2634,
      "åĲ«": 2635,
      "åĵģ": 2636,
      "å¤§åľ°": 2637,
      "ä»¶": 2638,
      "Ġnever": 2639,
      "æī§çĿĢ": 2640,
      "æĬĹ": 2641,
      "èĢĥ": 2642,
      "åĲ¬åĪ°": 2643,
      "æ¡Ī": 2644,
      "Ġthis": 2645,
      "åħ¨ä¸ĸçķĮ": 2646,
      "åĨ·æ¼ł": 2647,
      "å°¾": 2648,
      "æĪĳæľĢ": 2649,
      "Ġway": 2650,
      "æ½ĩ": 2651,
      "Ġè®©æĪĳ": 2652,
      "iss": 2653,
      "åłĨ": 2654,
      "Ġna": 2655,
      "çļĦä¼¤": 2656,
      "Ġday": 2657,
      "Ġheart": 2658,
      "è¿Ł": 2659,
      "åĳĬåĪ«": 2660,
      "æĦıä¹ī": 2661,
      "åķ¡": 2662,
      "æĭĸ": 2663,
      "æ¬º": 2664,
      "éļıçĿĢ": 2665,
      "å®ĩ": 2666,
      "æľĹ": 2667,
      "æľ¦": 2668,
      "å¤ļå¹´": 2669,
      "à¾": 2670,
      "çľĭçľĭ": 2671,
      "èĪįä¸įå¾Ĺ": 2672,
      "å¿ĥè·³": 2673,
      "äººæµ·": 2674,
      "But": 2675,
      "Ġan": 2676,
      "èĤł": 2677,
      "æķĮ": 2678,
      "å®½": 2679,
      "çī¹åĪ«": 2680,
      "ä¸įéľĢè¦ģ": 2681,
      "~~~~": 2682,
      "çĪ±ä½łçļĦ": 2683,
      "ide": 2684,
      "OU": 2685,
      "ul": 2686,
      "æĪĳçľŁçļĦ": 2687,
      "çļĦåħī": 2688,
      "æľºä¼ļ": 2689,
      "åĴĸåķ¡": 2690,
      "å¹³åĩ¡": 2691,
      "âĢľ": 2692,
      "ä¹ĸ": 2693,
      "ody": 2694,
      "æ³¥": 2695,
      "åĽ¾": 2696,
      "è¡¥": 2697,
      "åĿĹ": 2698,
      "åĨįå¤ļ": 2699,
      "åĳ³éģĵ": 2700,
      "è£Ĥ": 2701,
      "ä¹Į": 2702,
      "å°ĳå¹´": 2703,
      "éħ·": 2704,
      "éĢŁ": 2705,
      "çļĦä¸Ģ": 2706,
      "å¥Ĺ": 2707,
      "å¤§æµ·": 2708,
      "çīµæīĭ": 2709,
      "ä¾£": 2710,
      "åĩłå¤ļ": 2711,
      "åĪĨäº«": 2712,
      "èĦĨå¼±": 2713,
      "æ¬¢ç¬ĳ": 2714,
      "æŀĿ": 2715,
      "æĭħå¿ĥ": 2716,
      "ä¼ļä¸įä¼ļ": 2717,
      "ä¹ĭä¸Ń": 2718,
      "ĠæĿ¥": 2719,
      "å¦³": 2720,
      "åĲµ": 2721,
      "ç²ī": 2722,
      "thing": 2723,
      "ey": 2724,
      "æ¬¢åĸľ": 2725,
      "æĤ²åĵĢ": 2726,
      "çıł": 2727,
      "æľīè°ģ": 2728,
      "ç¬ĳçĿĢ": 2729,
      "nt": 2730,
      "æļ´": 2731,
      "çľ¸": 2732,
      "æĥħæŃĮ": 2733,
      "æ¦": 2734,
      "çľĭä¸įè§ģ": 2735,
      "æĺŁåħī": 2736,
      "èĩ³å°ĳ": 2737,
      "éĿ¢åīį": 2738,
      "åıĹä¼¤": 2739,
      "Ġgirl": 2740,
      "éĥ½æľī": 2741,
      "ç½ĳ": 2742,
      "çĹħ": 2743,
      "æĤłæĤł": 2744,
      "å®ŀçİ°": 2745,
      "éģ®": 2746,
      "å¤ľæĻļ": 2747,
      "å¤©ä¸Ĭ": 2748,
      "çľ·": 2749,
      "æĢĴ": 2750,
      "æ±ī": 2751,
      "ãĢĤãĢĤ": 2752,
      "åĳľ": 2753,
      "à½¦": 2754,
      "åĳĬè¯īä½ł": 2755,
      "é»İ": 2756,
      "Ûķ": 2757,
      "ç»½": 2758,
      "æľĽçĿĢ": 2759,
      "Ġå¥½": 2760,
      "Ġmake": 2761,
      "ä»İæľª": 2762,
      "çĽ¸ä¾Ŀ": 2763,
      "åĸĤ": 2764,
      "çĹ´å¿ĥ": 2765,
      "æ¯ıä¸Ģä¸ª": 2766,
      "ream": 2767,
      "å¯¹ä½łçļĦ": 2768,
      "å¼Ĥ": 2769,
      "her": 2770,
      "ä¸İæĪĳ": 2771,
      "æľīæĪĳ": 2772,
      "å¨ĥ": 2773,
      "æĴŀ": 2774,
      "ĠYou": 2775,
      "å¯Į": 2776,
      "æĸĻ": 2777,
      "èĥĮå½±": 2778,
      "ç©·": 2779,
      "æĴĴ": 2780,
      "å¼¦": 2781,
      "ĠØ": 2782,
      "ä¸įæĺ¯æĪĳ": 2783,
      "çİĽ": 2784,
      "éĹ·": 2785,
      "å³": 2786,
      "éĢĥéģ¿": 2787,
      "ãģ§": 2788,
      "éļ¾å¿ĺ": 2789,
      "å¤ıå¤©": 2790,
      "æĭĽ": 2791,
      "ç«¯": 2792,
      "Ġæ²¡": 2793,
      "çĪ±äºº": 2794,
      "çĿĢæĪĳçļĦ": 2795,
      "çķĻåľ¨": 2796,
      "æľīæ²¡æľī": 2797,
      "æĬĸ": 2798,
      "åĪ«ç¦»": 2799,
      "åı®": 2800,
      "çµ": 2801,
      "æĤ¨": 2802,
      "åª": 2803,
      "èķ": 2804,
      "ãģı": 2805,
      "æĿ¥äºĨ": 2806,
      "è¯´æĪĳ": 2807,
      "éĸ": 2808,
      "éļ¾ä»¥": 2809,
      "æĺ¯ä»Ģä¹Ī": 2810,
      "æĴĳ": 2811,
      "èĩªçĦ¶": 2812,
      "å¤ļæĥ³": 2813,
      "èĸĦ": 2814,
      "æĪĳä¸įä¼ļ": 2815,
      "éĹ®é¢ĺ": 2816,
      "è´£": 2817,
      "ä»ĬæĻļ": 2818,
      "ãģĨ": 2819,
      "é¤": 2820,
      "è¿ĻäºĽ": 2821,
      "ä¸ĸä¸Ĭ": 2822,
      "éĤ£éĩĮ": 2823,
      "åĶ±æŃĮ": 2824,
      "å«ģ": 2825,
      "ä¸ĬäºĨ": 2826,
      "çĥģ": 2827,
      "æĺ¾": 2828,
      "å±Ī": 2829,
      "æķ´ä¸ª": 2830,
      "æ²¡æľīä½ł": 2831,
      "ç¼ĸ": 2832,
      "å¤©çľŁ": 2833,
      "è½¬çľ¼": 2834,
      "åľ°çĲĥ": 2835,
      "åĹ¨": 2836,
      "ue": 2837,
      "æĽ´å¤ļ": 2838,
      "èĩªåľ¨": 2839,
      "å¨ĩ": 2840,
      "èĥĨ": 2841,
      "Ġhave": 2842,
      "æµģæ°´": 2843,
      "åĶ±çĿĢ": 2844,
      "å¯¸": 2845,
      "Baby": 2846,
      "æĬĺç£¨": 2847,
      "åľ¨åĵªéĩĮ": 2848,
      "è¾ī": 2849,
      "åĨ¬å¤©": 2850,
      "æįī": 2851,
      "å¿½çĦ¶": 2852,
      "çĤ¹çĤ¹": 2853,
      "use": 2854,
      "åŃ£èĬĤ": 2855,
      "ä¼¸": 2856,
      "æŁ³": 2857,
      "æķ²": 2858,
      "åį·": 2859,
      "åĸľæ¬¢ä½ł": 2860,
      "é¡º": 2861,
      "å½±åŃĲ": 2862,
      "æĪĳåıĪ": 2863,
      "äº«åıĹ": 2864,
      "é£İæĻ¯": 2865,
      "å·¦åı³": 2866,
      "So": 2867,
      "Ġäºº": 2868,
      "æī®": 2869,
      "åĵĴ": 2870,
      "Ġgood": 2871,
      "VE": 2872,
      "OH": 2873,
      "ç¨Ģ": 2874,
      "Ġdown": 2875,
      "ãģĤ": 2876,
      "ä½ĵä¼ļ": 2877,
      "Ġä½Ĩ": 2878,
      "è¿Ļä»½": 2879,
      "åĳ¼åĶ¤": 2880,
      "æľĢå¥½": 2881,
      "æĭĴç»Ŀ": 2882,
      "æ²¿": 2883,
      "æľĢç¾İçļĦ": 2884,
      "çİī": 2885,
      "çľŁçĪ±": 2886,
      "å®Ŀè´Ŀ": 2887,
      "èĬĴ": 2888,
      "æĭ¢": 2889,
      "æµ·è§Ĵ": 2890,
      "å¤ļä¹ħ": 2891,
      "è¯´ä½ł": 2892,
      "Ġneed": 2893,
      "å®¿": 2894,
      "èĩªæĪĳ": 2895,
      "Ġevery": 2896,
      "Ġä¸įè¦ģ": 2897,
      "å°Ĭ": 2898,
      "çºł": 2899,
      "åįĥå¹´": 2900,
      "è½»æĺĵ": 2901,
      "åĳµ": 2902,
      "ç»ĩ": 2903,
      "è¯´çļĦ": 2904,
      "çĭ¼": 2905,
      "ãģĮ": 2906,
      "èµ°åľ¨": 2907,
      "åıªæľīä½ł": 2908,
      "ç»ĥ": 2909,
      "æĻĵ": 2910,
      "æĪĲéķ¿": 2911,
      "æĢ»ä¼ļ": 2912,
      "æľ«": 2913,
      "çļĦæīĭ": 2914,
      "è¡¨æĥħ": 2915,
      "ä¸Ķ": 2916,
      "ç§ģ": 2917,
      "æĪĲäºĨ": 2918,
      "éĹªçĥģ": 2919,
      "å£®": 2920,
      "å¿ĥä¸ŃçļĦ": 2921,
      "æ¸º": 2922,
      "åħ°": 2923,
      "çĪ±ä¸Ĭä½ł": 2924,
      "åįĥéĩĮ": 2925,
      "Ġout": 2926,
      "ä¸Ģåıª": 2927,
      "èĥ¡": 2928,
      "èİ²": 2929,
      "è¿ĺèĥ½": 2930,
      "Ġæīį": 2931,
      "åĴ¿": 2932,
      "ä½ķå¤Ħ": 2933,
      "å¸¦æĪĳ": 2934,
      "æ¬¢ä¹Ĳ": 2935,
      "æ³¡": 2936,
      "å¤ªè¿ĩ": 2937,
      "æĹ¥å¤ľ": 2938,
      "Ġsa": 2939,
      "æĪĳæ²¡æľī": 2940,
      "åľ£": 2941,
      "éĽħ": 2942,
      "æĿ¥ä¸įåıĬ": 2943,
      "åºŁ": 2944,
      "èµ·äºĨ": 2945,
      "çĶ¨å¿ĥ": 2946,
      "éĩįæĸ°": 2947,
      "æĢĢæĬ±": 2948,
      "ä¸ĢåĪĩéĥ½": 2949,
      "ä¹Łæľī": 2950,
      "èµĽ": 2951,
      "å¼ı": 2952,
      "è¡·": 2953,
      "æĢĢéĩĮ": 2954,
      "Ġyeah": 2955,
      "ä¸įè§ī": 2956,
      "ç¼ĵ": 2957,
      "çĪ¸çĪ¸": 2958,
      "çĪ¶": 2959,
      "æĪĳçĪ±": 2960,
      "çŃīåĢĻ": 2961,
      "çľ¼éĩĮ": 2962,
      "åľ¨æĦı": 2963,
      "æĥ³åĪ°": 2964,
      "çħ§äº®": 2965,
      "åħ±ä½ł": 2966,
      "åĽ¢": 2967,
      "æ´ģ": 2968,
      "é¥Ń": 2969,
      "å®¶ä¹¡": 2970,
      "ÙĨ": 2971,
      "ä½łç»Ļ": 2972,
      "æ·ĭ": 2973,
      "èħ¾": 2974,
      "æĪĲä¸º": 2975,
      "æĹĭå¾ĭ": 2976,
      "eep": 2977,
      "çıŃ": 2978,
      "åłª": 2979,
      "Ġæĥħ": 2980,
      "èļ": 2981,
      "ä¹Łè¦ģ": 2982,
      "çľĭçĿĢä½ł": 2983,
      "å¾ĢæĹ¥": 2984,
      "æ¢ħ": 2985,
      "ä½łçľĭ": 2986,
      "èº«å½±": 2987,
      "çĨ¬": 2988,
      "ion": 2989,
      "ç½®": 2990,
      "æĹłå°½": 2991,
      "king": 2992,
      "ä¸Ģäºº": 2993,
      "our": 2994,
      "æ¶©": 2995,
      "åĨħå¿ĥ": 2996,
      "èı©": 2997,
      "æĪĳå·²ç»ı": 2998,
      "ãģ¾": 2999,
      "ç¼ĺåĪĨ": 3000,
      "if": 3001,
      "ä¸²": 3002,
      "çļĦæ³ª": 3003,
      "é¤Ĳ": 3004,
      "æħķ": 3005,
      "æĹłèģĬ": 3006,
      "å®Ļ": 3007,
      "æ¢Ń": 3008,
      "Ġby": 3009,
      "Ġnight": 3010,
      "åľ¨å¿ĥéĩĮ": 3011,
      "èĥ§": 3012,
      "è°ģéĥ½": 3013,
      "å¯¹ä½łè¯´": 3014,
      "æĥ¹": 3015,
      "ç©ºèĻļ": 3016,
      "ç¥ĸ": 3017,
      "ç¤º": 3018,
      "ãģĵ": 3019,
      "è¿ĩå¾Ģ": 3020,
      "è¶ģ": 3021,
      "å®ĩå®Ļ": 3022,
      "äºĨæĪĳçļĦ": 3023,
      "ç©¶ç«Ł": 3024,
      "ä¸Ģè¾ĪåŃĲ": 3025,
      "æĹłè¨Ģ": 3026,
      "ause": 3027,
      "è¿Ķ": 3028,
      "é¦¨": 3029,
      "çŃĶæ¡Ī": 3030,
      "æĺ¯ä¸ª": 3031,
      "Ġåı¯": 3032,
      "Ġcome": 3033,
      "Ġlife": 3034,
      "å¿ĥåºķ": 3035,
      "ä¸Ģæł·çļĦ": 3036,
      "å¯¹æĪĳè¯´": 3037,
      "è¯ģæĺİ": 3038,
      "æ¸ħéĨĴ": 3039,
      "çľŁå®ŀ": 3040,
      "æŁĶæĥħ": 3041,
      "ç¦»å¼ĢæĪĳ": 3042,
      "ç§»": 3043,
      "ç»½æĶ¾": 3044,
      "å¤©ä½¿": 3045,
      "çĶµå½±": 3046,
      "éĻĢ": 3047,
      "åĩłä¸ª": 3048,
      "Ġsome": 3049,
      "ä½łçļĦèĦ¸": 3050,
      "è¢Ĥ": 3051,
      "å¤§çļĦ": 3052,
      "éªĮ": 3053,
      "æĹłæĤĶ": 3054,
      "èĿ´": 3055,
      "Ġä¼ļ": 3056,
      "ä¸įå®Į": 3057,
      "å£«": 3058,
      "ç¥·": 3059,
      "ĠåķĬ": 3060,
      "æ³Ľ": 3061,
      "çĦ¡": 3062,
      "çļĦæĦŁè§ī": 3063,
      "el": 3064,
      "èµ°è¿Ľ": 3065,
      "ä¸ĩéĩĮ": 3066,
      "æľīå¤ļå°ĳ": 3067,
      "åĿ¦": 3068,
      "è¿½éĢĲ": 3069,
      "æ¬£èµı": 3070,
      "æ·±æĥħ": 3071,
      "åį±": 3072,
      "æĢİèĥ½": 3073,
      "old": 3074,
      "åħ»": 3075,
      "æĻĥ": 3076,
      "ä¸įä¸ĭ": 3077,
      "ä¸įä¼ļåĨį": 3078,
      "åĳ¦": 3079,
      "å§Ķ": 3080,
      "åĩĨå¤ĩ": 3081,
      "å¤©éķ¿": 3082,
      "æĥħæĦı": 3083,
      "åĢŁåı£": 3084,
      "æ¯ģ": 3085,
      "Ġwas": 3086,
      "å®ĪåĢĻ": 3087,
      "æ·»": 3088,
      "æŃī": 3089,
      "æĮ£æīİ": 3090,
      "ãģ£": 3091,
      "ä¾Ĩ": 3092,
      "èĿ´èĿ¶": 3093,
      "æľīäºĨ": 3094,
      "å¯Ĥå¯ŀçļĦ": 3095,
      "æĬ½": 3096,
      "çĭĹ": 3097,
      "æ·¡æ·¡": 3098,
      "è¯»": 3099,
      "éĢ¼": 3100,
      "åĪĨéĴŁ": 3101,
      "æĹ¢çĦ¶": 3102,
      "ä¸Ģéĺµ": 3103,
      "çķĻä½ı": 3104,
      "åıªä¸º": 3105,
      "il": 3106,
      "åĲĲ": 3107,
      "æĦī": 3108,
      "ç¾ŀ": 3109,
      "ç¬ĳèĦ¸": 3110,
      "è¿·å¤±": 3111,
      "å¤ľçļĦ": 3112,
      "ç»Ŀå¯¹": 3113,
      "æĴķ": 3114,
      "Ġå¤ļ": 3115,
      "åı¹æģ¯": 3116,
      "é½Ĳ": 3117,
      "æĪĳè¿ĺæĺ¯": 3118,
      "èĤĿ": 3119,
      "çķĻæģĭ": 3120,
      "åĵ¥åĵ¥": 3121,
      "å§¿": 3122,
      "æĿĤ": 3123,
      "æĺİæľĪ": 3124,
      "æĴŃ": 3125,
      "æī¿è®¤": 3126,
      "æĪĳä¿©": 3127,
      "ä¸ĭäºĨ": 3128,
      "æĳ©": 3129,
      "ä½łéĤ£": 3130,
      "èĥĮåĲİ": 3131,
      "è¯´åĩº": 3132,
      "day": 3133,
      "è¿ľåİ»": 3134,
      "æ·±å¤Ħ": 3135,
      "æīĳ": 3136,
      "å¾¨": 3137,
      "éĽģ": 3138,
      "éľĩ": 3139,
      "æ¸¯": 3140,
      "éļıä¾¿": 3141,
      "çº¦å®ļ": 3142,
      "æľ¦èĥ§": 3143,
      "ä¸įæİī": 3144,
      "ä¹ĭåīį": 3145,
      "å¼ĢäºĨ": 3146,
      "å¤§å£°": 3147,
      "æľĥ": 3148,
      "æ¶Ĥ": 3149,
      "åĽŀçŃĶ": 3150,
      "äººéĥ½": 3151,
      "æĻº": 3152,
      "æ¼Ĥäº®": 3153,
      "ä¸ļ": 3154,
      "ä¸įåı¯ä»¥": 3155,
      "èºº": 3156,
      "å®īæİĴ": 3157,
      "æľĢåĪĿ": 3158,
      "æĢ»æľī": 3159,
      "çľŁæŃ£": 3160,
      "äº¬": 3161,
      "è±ª": 3162,
      "ç©¿è¿ĩ": 3163,
      "Ġèĥ½": 3164,
      "çĽ¸èģļ": 3165,
      "æĹ¶åĪ»": 3166,
      "åħ³å¿ĥ": 3167,
      "å¹¿": 3168,
      "Ġaway": 3169,
      "è¶£": 3170,
      "ä¼¤åı£": 3171,
      "æ½ĩæ´Ĵ": 3172,
      "åĲŀ": 3173,
      "çľ¼ä¸Ń": 3174,
      "ä¿®": 3175,
      "èĢ³è¾¹": 3176,
      "æĪĳçĶ¨": 3177,
      "éĺ²": 3178,
      "åħ³äºİ": 3179,
      "è¾£": 3180,
      "èĵĿå¤©": 3181,
      "Ġä»ĸ": 3182,
      "ç¼ĺä»½": 3183,
      "éĢĤ": 3184,
      "ä½łæĺ¯æĪĳçļĦ": 3185,
      "åľ°ä¹ħ": 3186,
      "æĪĳæĦ¿æĦı": 3187,
      "å®ŀåľ¨": 3188,
      "åģľæŃ¢": 3189,
      "Ġch": 3190,
      "åħĭ": 3191,
      "å¯¹ä¸įèµ·": 3192,
      "oy": 3193,
      "ä½łå·²": 3194,
      "è·ŁçĿĢ": 3195,
      "æĺ¨æĹ¥": 3196,
      "éŀĭ": 3197,
      "ä»İä¸į": 3198,
      "åºŀ": 3199,
      "are": 3200,
      "æĪĴ": 3201,
      "æ··": 3202,
      "æĺ¯ä¸Ģç§į": 3203,
      "æĮ¤": 3204,
      "æĥħç»ª": 3205,
      "å¸Ī": 3206,
      "éĤ£ä¹Īå¤ļ": 3207,
      "çĽ®åħī": 3208,
      "äºĭæĥħ": 3209,
      "ose": 3210,
      "ĠæĬĬ": 3211,
      "åķĬåķĬ": 3212,
      "åĮĸä½ľ": 3213,
      "æĽ´åĬł": 3214,
      "æĹłå£°": 3215,
      "è®°ä½ı": 3216,
      "im": 3217,
      "å°±è®©æĪĳ": 3218,
      "é¥°": 3219,
      "åĲĳä½ł": 3220,
      "æĻļä¸Ĭ": 3221,
      "åı¯çĪ±": 3222,
      "æ¸©é¦¨": 3223,
      "è²": 3224,
      "åıĳçĶŁ": 3225,
      "èµŀ": 3226,
      "çĥĽ": 3227,
      "è¿ĩæĿ¥": 3228,
      "çľĭæĪĳ": 3229,
      "éĹ®ä½ł": 3230,
      "åį´åıĪ": 3231,
      "èĭ¦èĭ¦": 3232,
      "çĵľ": 3233,
      "è¿ĺæ²¡": 3234,
      "åĲĮæł·": 3235,
      "ä½łè¯´ä½ł": 3236,
      "å¥¢": 3237,
      "åĩĢ": 3238,
      "um": 3239,
      "ä¸Ģä¸ĭ": 3240,
      "åĨĴ": 3241,
      "'ve": 3242,
      "ä¸ĢæĿ¡": 3243,
      "å°ĨæĪĳ": 3244,
      "æĬµ": 3245,
      "æŀķ": 3246,
      "çī¢": 3247,
      "æ·Į": 3248,
      "æ³ªæµģ": 3249,
      "å¦Ĩ": 3250,
      "åĴª": 3251,
      "çł´ç¢İ": 3252,
      "çĮ«": 3253,
      "ç¿©": 3254,
      "æģ°": 3255,
      "è¿ĺè®°å¾Ĺ": 3256,
      "ç§¯": 3257,
      "ç§ĭå¤©": 3258,
      "Â·": 3259,
      "çĥ«": 3260,
      "æľīä½łçļĦ": 3261,
      "ãĤĬ": 3262,
      "èĤī": 3263,
      "æģŃ": 3264,
      "Ġworld": 3265,
      "æħ¨": 3266,
      "åĩĮ": 3267,
      "å©ļ": 3268,
      "èĩ´": 3269,
      "éĹ²": 3270,
      "Every": 3271,
      "ä¸įå®ī": 3272,
      "åıĺäºĨ": 3273,
      "æĦ¿æľĽ": 3274,
      "æĪĳåı¯ä»¥": 3275,
      "æ¯Ĵ": 3276,
      "åĽº": 3277,
      "èİ·": 3278,
      "æĥħæ·±": 3279,
      "çļĦå¿ĥæĥħ": 3280,
      "æĪĳä¸įèĥ½": 3281,
      "ving": 3282,
      "æĿİ": 3283,
      "ä½łèµ°": 3284,
      "åĪ°æľĢåĲİ": 3285,
      "çĪ¬": 3286,
      "body": 3287,
      "å°¼": 3288,
      "æĿ¥åĲ§": 3289,
      "å¤ªå¤ļçļĦ": 3290,
      "èµ¢": 3291,
      "è°ģåľ¨": 3292,
      "æĺ¯æľĢ": 3293,
      "éģĵçĲĨ": 3294,
      "åī²": 3295,
      "æŀª": 3296,
      "èĻ½": 3297,
      "ç¿¼": 3298,
      "éģİ": 3299,
      "çļĦå£°éŁ³": 3300,
      "æĪĳæīį": 3301,
      "æµģæĺŁ": 3302,
      "æĦīå¿«": 3303,
      "ä¸Ģé¦ĸ": 3304,
      "å¹´å°ĳ": 3305,
      "åĳĲ": 3306,
      "Let": 3307,
      "èĬĤå¥ı": 3308,
      "åīª": 3309,
      "å¯»è§ħ": 3310,
      "Ġtr": 3311,
      "éĽ·": 3312,
      "ä¸¤ä¸ªäºº": 3313,
      "å¸ĮæľĽä½ł": 3314,
      "éĴĪ": 3315,
      "Ġë": 3316,
      "æĹ¶çļĦ": 3317,
      "çľ·æģĭ": 3318,
      "å¹¶ä¸į": 3319,
      "ä¾Ŀèµĸ": 3320,
      "æľĢåĲİçļĦ": 3321,
      "åħ¨éĥ½": 3322,
      "my": 3323,
      "ä¸ĢåįĬ": 3324,
      "è°·": 3325,
      "åĭī": 3326,
      "ance": 3327,
      "å¿ħé¡»": 3328,
      "æĥ³è¿ĩ": 3329,
      "æ»¡è¶³": 3330,
      "çĪ±çĿĢä½ł": 3331,
      "ãģł": 3332,
      "ãģªãģĦ": 3333,
      "åº·": 3334,
      "è¯īè¯´": 3335,
      "èĦĳæµ·": 3336,
      "AN": 3337,
      "Ġam": 3338,
      "çĤº": 3339,
      "æľīä»Ģä¹Ī": 3340,
      "å°±èĥ½": 3341,
      "çļĦçĶŁæ´»": 3342,
      "ç±³": 3343,
      "ä»¥åīį": 3344,
      "ç§Ģ": 3345,
      "çĽĺ": 3346,
      "åĿİ": 3347,
      "çĽı": 3348,
      "å±ħ": 3349,
      "Ùħ": 3350,
      "çīµçĿĢ": 3351,
      "çĩķ": 3352,
      "å¥ī": 3353,
      "çļĦè¡Ĺ": 3354,
      "åĵ¼": 3355,
      "Ġå¤©": 3356,
      "èıľ": 3357,
      "ne": 3358,
      "æĿ¿": 3359,
      "ess": 3360,
      "æĥ«": 3361,
      "Ġåİ»": 3362,
      "è¿½æ±Ĥ": 3363,
      "éĢĨ": 3364,
      "è¾°": 3365,
      "çĸ²æĥ«": 3366,
      "æĪ´": 3367,
      "èŀįåĮĸ": 3368,
      "å¿ĥäºĭ": 3369,
      "æĹłåĬĽ": 3370,
      "å¤±è´¥": 3371,
      "æĪĸèĢħ": 3372,
      "è¯ºè¨Ģ": 3373,
      "åºĨ": 3374,
      "ä¼¤çĹķ": 3375,
      "æĦ¿ä½ł": 3376,
      "è¿Ļä¸ĢçĶŁ": 3377,
      "ä¼ĺ": 3378,
      "ree": 3379,
      "Ġæ°¸è¿ľ": 3380,
      "Ġmore": 3381,
      "Just": 3382,
      "ä¼ŀ": 3383,
      "å½»åºķ": 3384,
      "ç»Ł": 3385,
      "åħ·": 3386,
      "èĲ½åı¶": 3387,
      "è¶³å¤Ł": 3388,
      "çĽĽå¼Ģ": 3389,
      "ĠæĢİä¹Ī": 3390,
      "æĪĳå¾Ī": 3391,
      "çĿģ": 3392,
      "å½ĵä½ľ": 3393,
      "åĵİåĳĢ": 3394,
      "My": 3395,
      "åŃĶ": 3396,
      "een": 3397,
      "è½®åĽŀ": 3398,
      "å¤«": 3399,
      "è¿ģ": 3400,
      "Don": 3401,
      "çĶŁåĳ½çļĦ": 3402,
      "èµ¤": 3403,
      "æĹ¶ä»£": 3404,
      "èĬ¬": 3405,
      "ç³ĸ": 3406,
      "alal": 3407,
      "èĩĤ": 3408,
      "ä¼¤å¿ĥçļĦ": 3409,
      "å½·å¾¨": 3410,
      "å¾Ĺå¤ª": 3411,
      "ç¾İæ¢¦": 3412,
      "åİļ": 3413,
      "è§ģéĿ¢": 3414,
      "çļĦæµ·": 3415,
      "å¦¹å¦¹": 3416,
      "åĭ¾": 3417,
      "çĺ¦": 3418,
      "When": 3419,
      "åĩºäºĨ": 3420,
      "æį®": 3421,
      "åĪĻ": 3422,
      "æ´ŀ": 3423,
      "æłĩ": 3424,
      "çĨĦ": 3425,
      "åıįæŃ£": 3426,
      "ä¸Ģçľ¼": 3427,
      "à½²": 3428,
      "æ¬¾": 3429,
      "çĹ´çĹ´": 3430,
      "é»İæĺİ": 3431,
      "os": 3432,
      "ãģį": 3433,
      "çī§": 3434,
      "ç»ĿæľĽ": 3435,
      "æĿĳ": 3436,
      "å¾·": 3437,
      "ç»ĪçĤ¹": 3438,
      "Ġì": 3439,
      "å°Ĩä½ł": 3440,
      "baby": 3441,
      "Ġda": 3442,
      "ãģĳ": 3443,
      "è§ģä½ł": 3444,
      "åŀĤ": 3445,
      "ink": 3446,
      "åĶĲ": 3447,
      "è¦ģæĪĳ": 3448,
      "ĠOh": 3449,
      "èī°": 3450,
      "åľ¨ä½łèº«è¾¹": 3451,
      "åįĹæĹł": 3452,
      "å¡«": 3453,
      "åľ¨æĪĳèº«è¾¹": 3454,
      "çīĮ": 3455,
      "æ»¡å¤©": 3456,
      "ä¸įåĽŀ": 3457,
      "Ġdream": 3458,
      "ç±»": 3459,
      "ä¼łè¯´": 3460,
      "onna": 3461,
      "ĠĠĠ": 3462,
      "é£Ł": 3463,
      "é£İéĩĮ": 3464,
      "Ġè¿ĺæĺ¯": 3465,
      "é¢Ĺå¿ĥ": 3466,
      "ĠLove": 3467,
      "èĭ¥æĺ¯": 3468,
      "æĪĳèĥ½": 3469,
      "æĹħè¡Į": 3470,
      "èĪª": 3471,
      "æ»´æ»´": 3472,
      "éģĩè§ģä½ł": 3473,
      "âĢĶâĢĶ": 3474,
      "äººä»¬": 3475,
      "çĹķè¿¹": 3476,
      "å§Ķå±Ī": 3477,
      "çļĨ": 3478,
      "æĸľ": 3479,
      "æľŁæľĽ": 3480,
      "ä¸ĳ": 3481,
      "è®©èĩªå·±": 3482,
      "å¾Īä¹ħ": 3483,
      "è½»æĿ¾": 3484,
      "å®ĪæĬ¤": 3485,
      "èĦ¸ä¸Ĭ": 3486,
      "è°ģåıĪ": 3487,
      "æ»ĳ": 3488,
      "æĳĺ": 3489,
      "æĥ¦": 3490,
      "æŃĩ": 3491,
      "é¢ł": 3492,
      "äºĨåĲ§": 3493,
      "ç«¥è¯Ŀ": 3494,
      "ä¹ĺ": 3495,
      "æĬ«": 3496,
      "æ¯ıä¸Ģæ¬¡": 3497,
      "éĢĻ": 3498,
      "æĥ³è±¡": 3499,
      "Ġthere": 3500,
      "à½¼": 3501,
      "çļĦæ¸©æŁĶ": 3502,
      "bye": 3503,
      "è¿Ļæ®µ": 3504,
      "å¤´åıĳ": 3505,
      "ä¸ºäºĨä½ł": 3506,
      "æıŃ": 3507,
      "æĤ´": 3508,
      "æ¸©æŁĶçļĦ": 3509,
      "ç¹ģåįİ": 3510,
      "love": 3511,
      "è¢ĭ": 3512,
      "æĪĳåıªæĥ³": 3513,
      "ä¸įèĪį": 3514,
      "ä¸Ģå¼ł": 3515,
      "åħµ": 3516,
      "çļĦå¥½": 3517,
      "æ¹¾": 3518,
      "è°İè¨Ģ": 3519,
      "è½»è½»çļĦ": 3520,
      "ÙĦ": 3521,
      "åĥıä¸ª": 3522,
      "Music": 3523,
      "å½ĵå¤©": 3524,
      "å®¹é¢ľ": 3525,
      "çľ¼åħī": 3526,
      "æĺŁç©º": 3527,
      "ç¦»å¼Ģä½ł": 3528,
      "æĹłæķ°": 3529,
      "æľĢç¾İ": 3530,
      "åĵĪåĵĪ": 3531,
      "é¢ľèī²": 3532,
      "gain": 3533,
      "æ°¸ä¹ħ": 3534,
      "æĨĶ": 3535,
      "èº«ä¸Ĭ": 3536,
      "å·§": 3537,
      "åĴ§": 3538,
      "ç¥¥": 3539,
      "Ġå·²": 3540,
      "åĥıæĺ¯": 3541,
      "é¸¡": 3542,
      "çŁŃæļĤ": 3543,
      "åªļ": 3544,
      "æĬ¬å¤´": 3545,
      "çĽŁ": 3546,
      "çļĦæĹ¥åŃĲ": 3547,
      "ä½łçŁ¥éģĵ": 3548,
      "ig": 3549,
      "è®¯": 3550,
      "èĤ©èĨĢ": 3551,
      "æ²¦": 3552,
      "éļ¾åħį": 3553,
      "æĲŀ": 3554,
      "åĬ¿": 3555,
      "æīĩ": 3556,
      "æĪĳä¸ºä½ł": 3557,
      "åĬ³": 3558,
      "éĽĨ": 3559,
      "åĸ§": 3560,
      "ä½łåİ»": 3561,
      "é¢¤": 3562,
      "ä¸Ģç¬ĳ": 3563,
      "çķª": 3564,
      "èģĶ": 3565,
      "å¥ĩè¿¹": 3566,
      "Ġright": 3567,
      "å¿ĥå¤´": 3568,
      "æĨĶæĤ´": 3569,
      "æĺĶ": 3570,
      "ä¸ĭéĽ¨": 3571,
      "æ¯«": 3572,
      "éĥ½è¦ģ": 3573,
      "æĺİæĹ¥": 3574,
      "æķ¬": 3575,
      "ist": 3576,
      "æł·åŃĲ": 3577,
      "ä»»æĢ§": 3578,
      "åŁĥ": 3579,
      "æĪ¿éĹ´": 3580,
      "æ¸©æļĸçļĦ": 3581,
      "ä»£æĽ¿": 3582,
      "è¿Ļé¦ĸæŃĮ": 3583,
      "ä¼¤çĹĽ": 3584,
      "à½Ĥ": 3585,
      "åħīéĺ´": 3586,
      "Ġwhen": 3587,
      "ãĤĪ": 3588,
      "åĤ¬": 3589,
      "äººåľ¨": 3590,
      "yes": 3591,
      "Ġå¦Ĥ": 3592,
      "å·¥ä½ľ": 3593,
      "è¾Ľèĭ¦": 3594,
      "æ»©": 3595,
      "ç©ºéĹ´": 3596,
      "ç¬ĳæĪĳ": 3597,
      "çĻ»": 3598,
      "ä¿Ĺ": 3599,
      "è¿Ļä¸ĢåĪĩ": 3600,
      "å¿ĥä¸Ĭ": 3601,
      "çĹĽå¿«": 3602,
      "ä¸įåľ¨ä¹İ": 3603,
      "æĮī": 3604,
      "æĪĳæĥ³è¦ģ": 3605,
      "è¡¬": 3606,
      "ä»Ģéº½": 3607,
      "è¤": 3608,
      "è§Ħ": 3609,
      "æĥ³çĿĢ": 3610,
      "æĸ¯": 3611,
      "ç¯ĩ": 3612,
      "ç»ıåİĨ": 3613,
      "ä½¿æĪĳ": 3614,
      "æ¶Īæģ¯": 3615,
      "çļĦéĽ¨": 3616,
      "åĲĳå¾Ģ": 3617,
      "æ¨ª": 3618,
      "èĬ¬èĬ³": 3619,
      "çļĦå¤©ç©º": 3620,
      "æ³ī": 3621,
      "ï¼Ľ": 3622,
      "çĶŁæŃ»": 3623,
      "æ±Ĥä½ł": 3624,
      "å··": 3625,
      "æ±Łæ¹ĸ": 3626,
      "èĻĳ": 3627,
      "å¾ģ": 3628,
      "åĽŀåĳ³": 3629,
      "æĤŁ": 3630,
      "åĢĶ": 3631,
      "ç¥Īç¥·": 3632,
      "åķ¥": 3633,
      "éªĳ": 3634,
      "äºļ": 3635,
      "çĪĨ": 3636,
      "éº¼": 3637,
      "æĪĳæĬĬ": 3638,
      "éĵĥ": 3639,
      "å¿«ä¹ĲçļĦ": 3640,
      "æ¯įäº²": 3641,
      "à½ĳ": 3642,
      "Ġas": 3643,
      "çķı": 3644,
      "Ġtake": 3645,
      "Ġå¤ª": 3646,
      "åĩĭ": 3647,
      "çī²": 3648,
      "å¿§éĥģ": 3649,
      "ä»£è¡¨": 3650,
      "ä¸ĢèĪ¬": 3651,
      "æĭ¨": 3652,
      "ç§°": 3653,
      "èĤĨ": 3654,
      "æĪĳçļĦä¸ĸçķĮ": 3655,
      "è¯¥æĢİä¹Ī": 3656,
      "æĢªæĪĳ": 3657,
      "è§Ĩçº¿": 3658,
      "åĪ«è¯´": 3659,
      "å´©": 3660,
      "è¨": 3661,
      "ä¾ĿéĿł": 3662,
      "è´¢": 3663,
      "çħ§çīĩ": 3664,
      "è®¨åİĮ": 3665,
      "éĽ¨ä¸Ń": 3666,
      "æ¢¦å¢ĥ": 3667,
      "æĿĥ": 3668,
      "è°ģæĿ¥": 3669,
      "çŃīæĪĳ": 3670,
      "èł": 3671,
      "åľ¨æ¢¦éĩĮ": 3672,
      "èĲİ": 3673,
      "å¹³éĿĻ": 3674,
      "çĪ·": 3675,
      "è¾ľ": 3676,
      "åķ¦åķ¦åķ¦": 3677,
      "ĠR": 3678,
      "åĵªä¸ª": 3679,
      "¹éĤ£": 3680,
      "ä½³": 3681,
      "ä¼Ļ": 3682,
      "éļıæĹ¶": 3683,
      "æĥĺ": 3684,
      "è·¨": 3685,
      "åĪĹ": 3686,
      "ta": 3687,
      "çĪ±çĪ±": 3688,
      "åıĺåĮĸ": 3689,
      "è£³": 3690,
      "å¥¶": 3691,
      "å¤ļæĥħ": 3692,
      "åīįæĸ¹": 3693,
      "æł¹æľ¬": 3694,
      "æľīä¸Ģä¸ª": 3695,
      "åĢĭ": 3696,
      "æ¡ĥèĬ±": 3697,
      "æ¬ºéªĹ": 3698,
      "æħ¢æħ¢çļĦ": 3699,
      "çĦ¶èĢĮ": 3700,
      "è¯´è¿ĩ": 3701,
      "æ¼Ĩ": 3702,
      "èĲ½åľ¨": 3703,
      "æģŃåĸľ": 3704,
      "ä¹Łå¥½": 3705,
      "ç¼ķ": 3706,
      "çľĭéĢı": 3707,
      "ä¸įè¯´": 3708,
      "åįĪå¤ľ": 3709,
      "ä¸įç®Ĺ": 3710,
      "æĪĳçļĦæīĭ": 3711,
      "æľĢçĪ±": 3712,
      "éĤ£ä¸Ģå¤©": 3713,
      "å¢¨": 3714,
      "æĪĳå°±æĺ¯": 3715,
      "åĵĩ": 3716,
      "æĮ½çķĻ": 3717,
      "Th": 3718,
      "å®ł": 3719,
      "Ġab": 3720,
      "ways": 3721,
      "å¤©èįĴ": 3722,
      "åı«åģļ": 3723,
      "çĹ´æĥħ": 3724,
      "æŃ¦": 3725,
      "åľ°èĢģ": 3726,
      "å¹¸è¿Ĳ": 3727,
      "åıªåī©ä¸ĭ": 3728,
      "è®©çĪ±": 3729,
      "é²ľèĬ±": 3730,
      "æ²§æ¡ĳ": 3731,
      "åı¯æĺ¯æĪĳ": 3732,
      "Ġback": 3733,
      "çīº": 3734,
      "ç½¢": 3735,
      "åĲĦèĩª": 3736,
      "ä¸įå¯¹": 3737,
      "å¹´åįİ": 3738,
      "åĵŃäºĨ": 3739,
      "Ġat": 3740,
      "å¼Ģåı£": 3741,
      "Ġè¢«": 3742,
      "è§£éĩĬ": 3743,
      "åºĹ": 3744,
      "æ»¡äºĨ": 3745,
      "æĽ¾ç»ıçļĦ": 3746,
      "æĢħ": 3747,
      "éĻ¶": 3748,
      "çĽ¸æģĭ": 3749,
      "è¯±": 3750,
      "èĦī": 3751,
      "åĢĶå¼º": 3752,
      "åģ¥": 3753,
      "å°½ç®¡": 3754,
      "åįģå¹´": 3755,
      "Love": 3756,
      "çģ¯çģ«": 3757,
      "çīºçī²": 3758,
      "éļ¾å¾Ĺ": 3759,
      "éĽªèĬ±": 3760,
      "æĹħéĢĶ": 3761,
      "ç¾İå¥½çļĦ": 3762,
      "è¿ĺä¼ļ": 3763,
      "ä¼´æĪĳ": 3764,
      "å¿Į": 3765,
      "äººç¾¤": 3766,
      "æĪĳçļĦæ¢¦": 3767,
      "åıªå¥½": 3768,
      "èĪŁ": 3769,
      "åıĺæĪĲäºĨ": 3770,
      "å¥Ķè·ĳ": 3771,
      "åį±éĻ©": 3772,
      "æĸŃäºĨ": 3773,
      "Hey": 3774,
      "å¦Ħ": 3775,
      "çķ¥": 3776,
      "ning": 3777,
      "éĻªçĿĢä½ł": 3778,
      "è¿Ļä¸ªä¸ĸçķĮ": 3779,
      "ĠYOU": 3780,
      "ãĤĵ": 3781,
      "ĠçĶ¨": 3782,
      "æĬ±æŃī": 3783,
      "ait": 3784,
      "Ġgive": 3785,
      "è±«": 3786,
      "çĨŁæĤīçļĦ": 3787,
      "åĪ°å¤Ħ": 3788,
      "èµ°è¿ľ": 3789,
      "åĽłä½ł": 3790,
      "èĪŀåı°": 3791,
      "çĪ±çĿĢ": 3792,
      "ol": 3793,
      "æĹłè¾¹": 3794,
      "æŀ¯èĲİ": 3795,
      "ä¹Łæ²¡æľī": 3796,
      "HE": 3797,
      "æľīæĹ¶åĢĻ": 3798,
      "åı¯æĢľ": 3799,
      "ä½łåıĪ": 3800,
      "æīįæĺ¯": 3801,
      "åĺŁ": 3802,
      "ä¼ı": 3803,
      "è¡«": 3804,
      "ç©¿è¶Ĭ": 3805,
      "music": 3806,
      "æĪĳä¸įè¦ģ": 3807,
      "äºĨå¿ĥ": 3808,
      "æĻ®": 3809,
      "æĬ±ç´§": 3810,
      "æĥħæĦŁ": 3811,
      "æĪĲåĬŁ": 3812,
      "éģĩåĪ°": 3813,
      "æĬĳ": 3814,
      "å¤±æģĭ": 3815,
      "è°¢è°¢ä½ł": 3816,
      "å½ĵæĹ¶": 3817,
      "å°ĺåŁĥ": 3818,
      "æĤ¬": 3819,
      "éº¦": 3820,
      "åĿĲåľ¨": 3821,
      "Ġfrom": 3822,
      "çļĦå¹¸ç¦ı": 3823,
      "ä½łä¸įè¦ģ": 3824,
      "å°Ħ": 3825,
      "æ±ª": 3826,
      "çļĦç¾İ": 3827,
      "å¿«è¦ģ": 3828,
      "æį§": 3829,
      "Ġwon": 3830,
      "If": 3831,
      "ä¸įå°½": 3832,
      "ç¢§": 3833,
      "éľĵ": 3834,
      "å¾Ģåīį": 3835,
      "ä¸Ģæ»´": 3836,
      "çºłç¼ł": 3837,
      "à¼į": 3838,
      "èº¯": 3839,
      "å¤±æľĽ": 3840,
      "ND": 3841,
      "ä½łæĥ³": 3842,
      "ä¸ĢåĽŀ": 3843,
      "ä¸Ģä¸Ŀ": 3844,
      "æį¢æĿ¥": 3845,
      "æĪĳæĢİä¹Ī": 3846,
      "åıĽ": 3847,
      "ãģĪ": 3848,
      "æĸĳ": 3849,
      "å«Į": 3850,
      "get": 3851,
      "å¤ľç©º": 3852,
      "ä¸Ģå¤ľ": 3853,
      "æ¯ıæĹ¥": 3854,
      "å¤©æ°Ķ": 3855,
      "åįĳ": 3856,
      "å°½æĥħ": 3857,
      "ĠLa": 3858,
      "èĬ±èĲ½": 3859,
      "ä½łå¿ĥ": 3860,
      "åĲ¼": 3861,
      "æµªè´¹": 3862,
      "æĪĳå¥½": 3863,
      "èĬ±é¦Ļ": 3864,
      "æĢĿç»ª": 3865,
      "ile": 3866,
      "ä¼Ł": 3867,
      "å²Ľ": 3868,
      "ï¼į": 3869,
      "è®¤è¯Ĩ": 3870,
      "å¤©äº®": 3871,
      "æ´»çĿĢ": 3872,
      "ä¸įèĤ¯": 3873,
      "åĹ¯": 3874,
      "æ¼Ĥæ³Ĭ": 3875,
      "å°±å¥½": 3876,
      "è½°": 3877,
      "æĪĳæĿ¥": 3878,
      "è¿«": 3879,
      "ç©ºçĻ½": 3880,
      "ä»ĬæĹ¥": 3881,
      "ç»µç»µ": 3882,
      "ç«¹": 3883,
      "ä¸Ģåı£": 3884,
      "çīĻ": 3885,
      "è¯ķçĿĢ": 3886,
      "èĨĽ": 3887,
      "è¿ĩåĲİ": 3888,
      "æħĪ": 3889,
      "ä½łæĿ¥": 3890,
      "ook": 3891,
      "èĽĭ": 3892,
      "Ġbr": 3893,
      "ng": 3894,
      "æĪĳä¸Ģä¸ªäºº": 3895,
      "èł¢": 3896,
      "åı²": 3897,
      "Ġè¯·": 3898,
      "æĻĴ": 3899,
      "onight": 3900,
      "æ¸ħæĻ¨": 3901,
      "tle": 3902,
      "çĪ±æģ¨": 3903,
      "çºµçĦ¶": 3904,
      "æĪĳæĽ¾": 3905,
      "å¥½å¤ļ": 3906,
      "ä½ķæĸ¹": 3907,
      "çľĭä¸įåĪ°": 3908,
      "ĠK": 3909,
      "æİ¥è¿ĳ": 3910,
      "å¡Ķ": 3911,
      "Ġåĵ¦": 3912,
      "äºĨä½łçļĦ": 3913,
      "çķħ": 3914,
      "åĥıæĪĳ": 3915,
      "æĺİçŁ¥": 3916,
      "äº¡": 3917,
      "èĳ¬": 3918,
      "æĦıå¤ĸ": 3919,
      "é£ŀè¿ĩ": 3920,
      "Ûĩ": 3921,
      "æ²Ĵ": 3922,
      "èĶĵ": 3923,
      "ï¿½ï¿½": 3924,
      "æīī": 3925,
      "ä¸įå¤ļ": 3926,
      "æ·¹": 3927,
      "åĶī": 3928,
      "åĸĦèī¯": 3929,
      "å¿ĥçĸ¼": 3930,
      "çļĦæĹ¶éĹ´": 3931,
      "ä½ĨæĪĳ": 3932,
      "ä¸įçŁ¥ä¸įè§ī": 3933,
      "Ġsu": 3934,
      "éĢĹ": 3935,
      "æıĴ": 3936,
      "è¿Ļä¸ĢåĪ»": 3937,
      "å¤ľå¤ľ": 3938,
      "ä¿ĿæĬ¤": 3939,
      "ç¬¨": 3940,
      "ĠĠĠĠ": 3941,
      "å¿§æĦģ": 3942,
      "ä¸Ģé¢Ĺå¿ĥ": 3943,
      "éĩįæĿ¥": 3944,
      "éļĲèĹı": 3945,
      "è®¾": 3946,
      "èĢį": 3947,
      "BY": 3948,
      "å¾Ĵ": 3949,
      "çĶ©": 3950,
      "äº²åĲ»": 3951,
      "å¸¸å¸¸": 3952,
      "ally": 3953,
      "çĬ¹è±«": 3954,
      "ä»ĭ": 3955,
      "Ġtell": 3956,
      "å·Ŀ": 3957,
      "å¸Ĩ": 3958,
      "åıĪæĺ¯": 3959,
      "æ²»": 3960,
      "æĭ¾": 3961,
      "ãģ¤": 3962,
      "å¤§éĽ¨": 3963,
      "å£°å£°": 3964,
      "èµĮ": 3965,
      "Ġman": 3966,
      "over": 3967,
      "è·³èĪŀ": 3968,
      "åĴĴ": 3969,
      "åĨįä¼ļ": 3970,
      "ieve": 3971,
      "Ġèµ°": 3972,
      "ä¹ŁæĽ¾": 3973,
      "Ġagain": 3974,
      "éªĤ": 3975,
      "Ġå¯¹": 3976,
      "æĹłè°ĵ": 3977,
      "Ġfa": 3978,
      "éĢĿåİ»": 3979,
      "ĠæĶ¾": 3980,
      "æĥĨ": 3981,
      "è¯´åĨįè§ģ": 3982,
      "li": 3983,
      "Ġpl": 3984,
      "No": 3985,
      "Ġeyes": 3986,
      "æ®ĭå¿į": 3987,
      "æ¢¦éĨĴ": 3988,
      "èĥ¸åı£": 3989,
      "åĭīå¼º": 3990,
      "ä½łæĽ¾": 3991,
      "æ±¤": 3992,
      "åįķçº¯": 3993,
      "ä¸Ģé¦ĸæŃĮ": 3994,
      "æĹłåĬ©": 3995,
      "åĬĿ": 3996,
      "OVE": 3997,
      "ough": 3998,
      "æŃ¤çĶŁ": 3999,
      "å£ģ": 4000,
      "å¤ľèī²": 4001,
      "äººäºº": 4002,
      "è¿ľç¦»": 4003,
      "à½ĺ": 4004,
      "æĺ§": 4005,
      "è¿ĩä½ł": 4006,
      "çĽ¸éļı": 4007,
      "éĵº": 4008,
      "Ġé£İ": 4009,
      "èħ°": 4010,
      "æĺ¯éĿŀ": 4011,
      "è¸©": 4012,
      "ãģķ": 4013,
      "å¸ħ": 4014,
      "ä¾Ŀåģİ": 4015,
      "æĲŃ": 4016,
      "çľ¶": 4017,
      "è¿½å¯»": 4018,
      "low": 4019,
      "Ġå¿«": 4020,
      "å¤±çľł": 4021,
      "è¿ĩåİ»çļĦ": 4022,
      "ç»£": 4023,
      "æīĭä¸Ń": 4024,
      "éĩįéĢ¢": 4025,
      "~~~": 4026,
      "çĽ¸å®Ī": 4027,
      "æĪĳå¿ĥä¸Ń": 4028,
      "åİŁåľ°": 4029,
      "åºĦ": 4030,
      "æ°¸è¿ľçļĦ": 4031,
      "æ°¸è¿ľä¸į": 4032,
      "ĠåĲ¬": 4033,
      "æĪĳåĨį": 4034,
      "è¿·æĥĺ": 4035,
      "åįĥå±±": 4036,
      "æĪĳåıªæĺ¯": 4037,
      "æĻ°": 4038,
      "ç¤¾": 4039,
      "åıªä¼ļ": 4040,
      "å¤±åİ»äºĨ": 4041,
      "è¿ĩå¾Ĺ": 4042,
      "å§ĵ": 4043,
      "æĪĳå¿ĥéĩĮ": 4044,
      "ä¸¥": 4045,
      "çĦ°": 4046,
      "åĬŀæ³ķ": 4047,
      "æľīå¤©": 4048,
      "åĮĸæĪĲ": 4049,
      "éĨīäºĨ": 4050,
      "åĽĽåŃ£": 4051,
      "æĵį": 4052,
      "ĠP": 4053,
      "Ġcould": 4054,
      "èĥ¸èĨĽ": 4055,
      "ç¡¬": 4056,
      "Ġya": 4057,
      "ä¿¡ä»°": 4058,
      "å¼¯å¼¯": 4059,
      "ä½łåĴĮæĪĳ": 4060,
      "åĪ°èĢģ": 4061,
      "åī©ä¸ĭ": 4062,
      "çĸ²åĢ¦": 4063,
      "æĪĳä¸ĢçĽ´": 4064,
      "Ø±": 4065,
      "å½ķ": 4066,
      "åĤ»åĤ»": 4067,
      "åĨ²åĬ¨": 4068,
      "å³°": 4069,
      "Ġgonna": 4070,
      "æĪĳå¯¹": 4071,
      "çĽ¸å¯¹": 4072,
      "æŀ¶": 4073,
      "ç»Īç©¶": 4074,
      "ä¸įæĺ¯ä½ł": 4075,
      "æī¾ä¸ª": 4076,
      "ä½łè®©æĪĳ": 4077,
      "äºĨåĲĹ": 4078,
      "å¿įä¸įä½ı": 4079,
      "æ£®": 4080,
      "çĪ±å°±": 4081,
      "éĺŁ": 4082,
      "Ġfall": 4083,
      "éĩĬæĶ¾": 4084,
      "ĠæĪĳè¦ģ": 4085,
      "çļĦæķħäºĭ": 4086,
      "çľĭå¾Ĺ": 4087,
      "æĹ¥è®°": 4088,
      "ast": 4089,
      "æĻ¶": 4090,
      "çº±": 4091,
      "èį·": 4092,
      "à½Ħ": 4093,
      "ç¬¬ä¸Ģæ¬¡": 4094,
      "è¿·æĥĳ": 4095,
      "æºĲ": 4096,
      "ä¸įæĿ¥": 4097,
      "çĨĬ": 4098,
      "çļĦåĽŀå¿Ĩ": 4099,
      "çĽ¸è¯Ĩ": 4100,
      "ä¸Ģè¾¹": 4101,
      "æļĿ": 4102,
      "æĥ³èµ·ä½ł": 4103,
      "çķĶ": 4104,
      "çĽ¸æĭ¥": 4105,
      "çŁ¥å·±": 4106,
      "ady": 4107,
      "çĪ½": 4108,
      "éĤ£æĹ¶": 4109,
      "å¾®é£İ": 4110,
      "æª": 4111,
      "é¸£": 4112,
      "åĮĹäº¬": 4113,
      "Ġif": 4114,
      "è°ģä¼ļ": 4115,
      "è¿ľèµ°": 4116,
      "æĪĳä»¬ä¸Ģèµ·": 4117,
      "åĿ¡": 4118,
      "æ¸©åº¦": 4119,
      "çĴĥ": 4120,
      "ä½łæĢİä¹Ī": 4121,
      "åıĺçļĦ": 4122,
      "åıªæĢķ": 4123,
      "æĻĤ": 4124,
      "å½ĵå¹´": 4125,
      "çļĦæ»ĭåĳ³": 4126,
      "ä»Ĭå®µ": 4127,
      "hing": 4128,
      "Ġå¤§": 4129,
      "æīįåıĳçİ°": 4130,
      "æĤ²æ¬¢": 4131,
      "ç¨³": 4132,
      "èµ°åĩº": 4133,
      "åĨįä¸Ģæ¬¡": 4134,
      "ON": 4135,
      "æĤ¦": 4136,
      "æĺİäºĨ": 4137,
      "æ¯Ķè¾ĥ": 4138,
      "æĭ¼åĳ½": 4139,
      "åĲİçļĦ": 4140,
      "èĻļä¼ª": 4141,
      "ĠåĴĮ": 4142,
      "Ġhere": 4143,
      "ä¸įçĲĨ": 4144,
      "ä¸ĢæĽ²": 4145,
      "IN": 4146,
      "èī²å½©": 4147,
      "æĮ¥æīĭ": 4148,
      "à¸": 4149,
      "éķ¿å¤ľ": 4150,
      "æĥĨæĢħ": 4151,
      "ĠE": 4152,
      "èĭı": 4153,
      "åģĩå¦Ĥ": 4154,
      "est": 4155,
      "Ġæ¢¦": 4156,
      "åİ»äºĨ": 4157,
      "éļ¾åıĹ": 4158,
      "æ¸ħæĻ°": 4159,
      "éĩįå¤į": 4160,
      "æ²¡æľīä½łçļĦ": 4161,
      "éĻªçĿĢæĪĳ": 4162,
      "What": 4163,
      "ç¼©": 4164,
      "åĩı": 4165,
      "ç´«": 4166,
      "åŃ¤å¯Ĥ": 4167,
      "çĥŃçĪ±": 4168,
      "å¡ŀ": 4169,
      "æĪĳåıªèĥ½": 4170,
      "é£İåħī": 4171,
      "æķĻæĪĳ": 4172,
      "æĹłæĢ¨": 4173,
      "æĹ©å°±": 4174,
      "å»º": 4175,
      "ä¸ĢåıĮ": 4176,
      "è¯´å¥½": 4177,
      "éĹ®åĢĻ": 4178,
      "å¨ģ": 4179,
      "å·¨": 4180,
      "åİ»çĪ±": 4181,
      "ç¡®å®ļ": 4182,
      "éĢģä½ł": 4183,
      "æĥ³ä½łçļĦ": 4184,
      "çłģ": 4185,
      "èĪįå¾Ĺ": 4186,
      "åĴļ": 4187,
      "æĪĲçĨŁ": 4188,
      "åľ¨è¿Ļä¸ª": 4189,
      "åĿļå®ļ": 4190,
      "åĲ¸å¼ķ": 4191,
      "ä»İä»Ĭ": 4192,
      "Ġè¶Ĭ": 4193,
      "oney": 4194,
      "æģį": 4195,
      "æĪĳæ²¡": 4196,
      "æµĭ": 4197,
      "è¢ĸ": 4198,
      "å¿ł": 4199,
      "æľīåĩł": 4200,
      "çģĮ": 4201,
      "ag": 4202,
      "OO": 4203,
      "ä¸įé¡¾": 4204,
      "é£İåĦ¿": 4205,
      "ç»ĻæĪĳçļĦ": 4206,
      "Ġhow": 4207,
      "èĭ¦æ¶©": 4208,
      "Ġä¸įåĨį": 4209,
      "éĵŃ": 4210,
      "çºªå¿µ": 4211,
      "oll": 4212,
      "åħ³æĢĢ": 4213,
      "æĦıçļĦ": 4214,
      "èª°": 4215,
      "æ²¡äºĨ": 4216,
      "èĩªä¿¡": 4217,
      "ç¥ŀç§ĺ": 4218,
      "ä½łæľĢ": 4219,
      "åľ¨å¿ĥä¸Ń": 4220,
      "æ´ĴèĦ±": 4221,
      "Â·Â·": 4222,
      "æ©": 4223,
      "è¯ĥ": 4224,
      "è°ģè¯´": 4225,
      "Ġbel": 4226,
      "ç´¯äºĨ": 4227,
      "åĩ¤": 4228,
      "ct": 4229,
      "æľªçŁ¥": 4230,
      "å¼łå¼Ģ": 4231,
      "æĬĽå¼Ģ": 4232,
      "åĿłèĲ½": 4233,
      "åĨ°åĨ·": 4234,
      "ç«ł": 4235,
      "ç¢Į": 4236,
      "æ¯ĶæĪĳ": 4237,
      "çģ¯åħī": 4238,
      "Ġabout": 4239,
      "à½ĸ": 4240,
      "åģļä¸ª": 4241,
      "è¢«çĪ±": 4242,
      "æĪĳä¸įæĺ¯": 4243,
      "20": 4244,
      "ç»ĻçļĦ": 4245,
      "ppy": 4246,
      "æ¼Ĩé»ĳ": 4247,
      "åı¯åĲ¦": 4248,
      "æ²īéĨī": 4249,
      "ä»Ģä¹ĪæĹ¶åĢĻ": 4250,
      "è¯´ä¸įåĩº": 4251,
      "ä¸Ģçŀ¬éĹ´": 4252,
      "çľ¨": 4253,
      "åĽłä¸ºæĪĳ": 4254,
      "æĺ¨å¤ľ": 4255,
      "ä¿ĿçķĻ": 4256,
      "è§£èĦ±": 4257,
      "çŃĶåºĶ": 4258,
      "åĪ°æĪĳ": 4259,
      "ä½łçļĦæ¸©æŁĶ": 4260,
      "æĬĬæı¡": 4261,
      "è±Ĩ": 4262,
      "çļĦå±±": 4263,
      "æľªæĽ¾": 4264,
      "äºĨåıĪ": 4265,
      "ç¾¡": 4266,
      "è¿Ļå°±æĺ¯": 4267,
      "ä¸Ĭå¤©": 4268,
      "æ´¾": 4269,
      "åĩºåıĳ": 4270,
      "æ¯ıå½ĵ": 4271,
      "æŃ£åľ¨": 4272,
      "éĻĪ": 4273,
      "ç¼Ŀ": 4274,
      "èĻİ": 4275,
      "Ġonly": 4276,
      "æ¸ħé£İ": 4277,
      "æĳĩæĳĨ": 4278,
      "ä¼ªè£ħ": 4279,
      "wo": 4280,
      "ä»ħ": 4281,
      "å¦Ĵ": 4282,
      "è·ĥ": 4283,
      "æ¯ķ": 4284,
      "æŀī": 4285,
      "çĪ¹": 4286,
      "éĤ£å¹´": 4287,
      "ä¸įä¸Ĭ": 4288,
      "èĥ½åĲ¦": 4289,
      "å¥Īä½ķ": 4290,
      "ĠçŃī": 4291,
      "æ¬²æľĽ": 4292,
      "ç¥ĸåĽ½": 4293,
      "ä½łæĢ»æĺ¯": 4294,
      "Ġsp": 4295,
      "ä¿ĿæĮģ": 4296,
      "é£ĺé£ĺ": 4297,
      "å¿ĺè®°ä½ł": 4298,
      "åĹ¡": 4299,
      "iend": 4300,
      "èĶĵå»¶": 4301,
      "æµģæ·Į": 4302,
      "ant": 4303,
      "ĠU": 4304,
      "åıªåĽł": 4305,
      "éĻ¢": 4306,
      "RE": 4307,
      "è®©å®ĥ": 4308,
      "à½¢": 4309,
      "çĦ¦": 4310,
      "åĭĴ": 4311,
      "Ġtoo": 4312,
      "æĪĳçļĦå¿ĥéĩĮ": 4313,
      "åīįä¸ĸ": 4314,
      "All": 4315,
      "ä¸Ģéģĵ": 4316,
      "åĲİæĿ¥": 4317,
      "å¥ĳ": 4318,
      "La": 4319,
      "åħīèĬĴ": 4320,
      "åĢ¾è¯ī": 4321,
      "ä¸ĢæĬĬ": 4322,
      "ä¸ĢéĿ¢": 4323,
      "çº¢é¢ľ": 4324,
      "æ²īçĿ¡": 4325,
      "çļĩ": 4326,
      "çļĦçľ¼çĿĽ": 4327,
      "æĪĳå°Ĩ": 4328,
      "urn": 4329,
      "äºĴçĽ¸": 4330,
      "è²Į": 4331,
      "ä¸Ģå¯¹": 4332,
      "ä¸Ģåı¥è¯Ŀ": 4333,
      "ä¸įä¸Ģæł·": 4334,
      "åı¯çĪ±çļĦ": 4335,
      "æĬĬçĪ±": 4336,
      "èªª": 4337,
      "ãĦ": 4338,
      "çĬ¶": 4339,
      "æĬĽå¼ĥ": 4340,
      "ä¸Ľ": 4341,
      "ãģĻ": 4342,
      "è®°èµ·": 4343,
      "çļĦå¤§": 4344,
      "æĦŁæħ¨": 4345,
      "èº«åĲİ": 4346,
      "çļĦå¤ľæĻļ": 4347,
      "Ġalways": 4348,
      "äº²åĥı": 4349,
      "ç³Ł": 4350,
      "è¯Ńè¨Ģ": 4351,
      "orever": 4352,
      "æĭĨ": 4353,
      "ãģĿ": 4354,
      "æĪĳä¸įåĨį": 4355,
      "çĶĺå¿ĥ": 4356,
      "æ²§æµ·": 4357,
      "çĽĪ": 4358,
      "å£³": 4359,
      "Ġbl": 4360,
      "æµ·æ´ĭ": 4361,
      "çħİ": 4362,
      "æ¢¦çļĦ": 4363,
      "éĶĭ": 4364,
      "å¯¼": 4365,
      "èĪĴ": 4366,
      "çĥŁçģ«": 4367,
      "ç«ŁçĦ¶": 4368,
      "ä½łå°±æĺ¯": 4369,
      "no": 4370,
      "æĹĹ": 4371,
      "æ¼«æ¼«": 4372,
      "éĸĭ": 4373,
      "å¤©éķ¿åľ°ä¹ħ": 4374,
      "éľĵèĻ¹": 4375,
      "That": 4376,
      "æĪĳçĽ¸ä¿¡": 4377,
      "åħľ": 4378,
      "çŃĿ": 4379,
      "åł¡": 4380,
      "åĻľ": 4381,
      "æľīä¸Ģç§į": 4382,
      "æĪĳä¾ĿçĦ¶": 4383,
      "ound": 4384,
      "ä¸°": 4385,
      "æĪĳåĸľæ¬¢": 4386,
      "çĿĢéĤ£": 4387,
      "Ġä¸ºä½ł": 4388,
      "æºª": 4389,
      "æ¤": 4390,
      "ä½łåĪ«": 4391,
      "æľīæĥħ": 4392,
      "åĨ³å¿ĥ": 4393,
      "å¡Į": 4394,
      "çĶļä¹Ī": 4395,
      "æĦıæĢĿ": 4396,
      "è´¨": 4397,
      "éĻ¶éĨī": 4398,
      "ç¬¦": 4399,
      "åĴķ": 4400,
      "æĲº": 4401,
      "ak": 4402,
      "åĨįæĿ¥": 4403,
      "æİł": 4404,
      "èĦ¾": 4405,
      "æľīç¼ĺ": 4406,
      "Ġå¥¹": 4407,
      "éŃĦ": 4408,
      "çļ±": 4409,
      "æĿ¥èĩª": 4410,
      "çº¹": 4411,
      "é¢ĳ": 4412,
      "so": 4413,
      "èĦı": 4414,
      "æľīçļĦ": 4415,
      "æī¯": 4416,
      "æĹ¥èĲ½": 4417,
      "ç»ĨéĽ¨": 4418,
      "çĻ½çļĦ": 4419,
      "Ġcl": 4420,
      "éģĩä¸Ĭ": 4421,
      "æĬķåħ¥": 4422,
      "è¿ĻæĿ¡": 4423,
      "ä»ĩ": 4424,
      "åħ®": 4425,
      "åħ¸": 4426,
      "å°±æĺ¯æĪĳ": 4427,
      "ç¥¨": 4428,
      "éĶĻè¯¯": 4429,
      "éĿĴå±±": 4430,
      "Ġv": 4431,
      "åĲ¬æĪĳ": 4432,
      "æĢ»åľ¨": 4433,
      "çĽ¸ä¼´": 4434,
      "........": 4435,
      "æ¯ıä¸ªäºº": 4436,
      "ç¬¼": 4437,
      "å½·ä½Ľ": 4438,
      "sh": 4439,
      "åĬ²": 4440,
      "æĶ¾çºµ": 4441,
      "Ġwho": 4442,
      "ä¸Ģå®ļè¦ģ": 4443,
      "æĭĤ": 4444,
      "æľĢå¥½çļĦ": 4445,
      "çĤ¹çĩĥ": 4446,
      "Ġä¸Ģèµ·": 4447,
      "ä¹Łä¸įä¼ļ": 4448,
      "è¯´ä»Ģä¹Ī": 4449,
      "ç¢į": 4450,
      "åı¥è¯Ŀ": 4451,
      "çĵ¦": 4452,
      "åĪĽéĢł": 4453,
      "åľ¨å¿ĥåºķ": 4454,
      "çĪ±æģĭ": 4455,
      "Ġä»İ": 4456,
      "ä¸Ģä»½": 4457,
      "à½º": 4458,
      "ç´§æı¡": 4459,
      "è©": 4460,
      "éĤ£ç§į": 4461,
      "ä¸įèµ°": 4462,
      "èµĲ": 4463,
      "å¸¦æĿ¥": 4464,
      "è£¡": 4465,
      "æĸ°é²ľ": 4466,
      "åĲ¯": 4467,
      "æĥ³æĪĳ": 4468,
      "æľĪåĦ¿": 4469,
      "åĽ°éļ¾": 4470,
      "çĽ²": 4471,
      "ven": 4472,
      "çĻ½å¤©": 4473,
      "åĸĶåĸĶ": 4474,
      "ç´ł": 4475,
      "å°º": 4476,
      "ÙĬ": 4477,
      "æ¼¾": 4478,
      "åıįå¤į": 4479,
      "æĹħç¨ĭ": 4480,
      "é¢¤æĬĸ": 4481,
      "Ġå¾Ī": 4482,
      "ease": 4483,
      "ä¸įå®¹æĺĵ": 4484,
      "è¿ľè¿ľ": 4485,
      "Ġbut": 4486,
      "Ġthey": 4487,
      "çļĦä¸ĢåĪĩ": 4488,
      "èİī": 4489,
      "å¿ĺè®°äºĨ": 4490,
      "åĶ¯ä¸ĢçļĦ": 4491,
      "å¿ĥåĬ¨": 4492,
      "Ġwhy": 4493,
      "ame": 4494,
      "ä½łå¥½": 4495,
      "è¾ĳ": 4496,
      "å°ĨæĿ¥": 4497,
      "è¨Ģè¯Ń": 4498,
      "ä½łçĪ±": 4499,
      "åıĤ": 4500,
      "å·ŀ": 4501,
      "å¨ľ": 4502,
      "we": 4503,
      "åĻ¨": 4504,
      "æĹĭè½¬": 4505,
      "ä¸¹": 4506,
      "æµ·è¾¹": 4507,
      "å¦Ĥæ¢¦": 4508,
      "ä½łçļĦç¬ĳ": 4509,
      "èģª": 4510,
      "æ²¾": 4511,
      "ä¹Łæ²¡": 4512,
      "è¾½": 4513,
      "è¡£è£³": 4514,
      "å¤¸": 4515,
      "ittle": 4516,
      "æīŃ": 4517,
      "éĢĽ": 4518,
      "æĮº": 4519,
      "åĺ²": 4520,
      "zy": 4521,
      "æĥ³æ³ķ": 4522,
      "åľ¨æĪĳå¿ĥéĩĮ": 4523,
      "ä¸Ģåİ»": 4524,
      "ä¸ĸçºª": 4525,
      "ç¤¼çī©": 4526,
      "ABY": 4527,
      "åĹĴ": 4528,
      "å®£": 4529,
      "æĸ¹å¼ı": 4530,
      "åĴ¿åĳĢ": 4531,
      "å¿ĥéħ¸": 4532,
      "åĵĹ": 4533,
      "æıı": 4534,
      "Ġhand": 4535,
      "ç¥¸": 4536,
      "ty": 4537,
      "å°±æĺ¯ä½ł": 4538,
      "Ġlea": 4539,
      "ä¸įç»ı": 4540,
      "å¤©çĶŁ": 4541,
      "å¹³æ·¡": 4542,
      "Ġé£ŀ": 4543,
      "åĥıä½ł": 4544,
      "å¿«å¿«": 4545,
      "åİŁè°ħæĪĳ": 4546,
      "æľīè¿ĩ": 4547,
      "èĢĮæĪĳ": 4548,
      "åłķ": 4549,
      "æĿ¨": 4550,
      "å±İ": 4551,
      "Ġthink": 4552,
      "çĵ£": 4553,
      "éĹŃä¸Ĭçľ¼": 4554,
      "Ġlo": 4555,
      "é«ĺé«ĺ": 4556,
      "æģ¨ä½ł": 4557,
      "è°£": 4558,
      "åĢį": 4559,
      "åĨ·åĨ·": 4560,
      "ç«¥å¹´": 4561,
      "åĿ·": 4562,
      "ç§ĭé£İ": 4563,
      "çıįè´µ": 4564,
      "ä»¤äºº": 4565,
      "Ġus": 4566,
      "æĺ¯çĪ±": 4567,
      "æĦļ": 4568,
      "è¿Ļæ¬¡": 4569,
      "ä»£ä»·": 4570,
      "åĽ´ç»ķ": 4571,
      "èĢ³æľµ": 4572,
      "Ġmind": 4573,
      "è¤ª": 4574,
      "ling": 4575,
      "å¤º": 4576,
      "å¿ĥåĨħ": 4577,
      "èµł": 4578,
      "è¦ĭ": 4579,
      "æĮĤå¿µ": 4580,
      "è®¡è¾ĥ": 4581,
      "çļĦç¬ĳ": 4582,
      "è¦ģèµ°": 4583,
      "çŃīçĿĢä½ł": 4584,
      "Ġcry": 4585,
      "çļĦèĭ¦": 4586,
      "æĥħè¯Ŀ": 4587,
      "ç»ĻäºĨ": 4588,
      "rough": 4589,
      "äººæĿ¥": 4590,
      "éĥ½è¯´": 4591,
      "éĺµéĺµ": 4592,
      "è¯¾": 4593,
      "ä¸įæĺİçĻ½": 4594,
      "Ġbeen": 4595,
      "éķľåŃĲ": 4596,
      "èĦ¾æ°Ķ": 4597,
      "è·¯åı£": 4598,
      "æľĪèī²": 4599,
      "çŃīçĿĢ": 4600,
      "ãĤı": 4601,
      "å¥½ä¹ħ": 4602,
      "alk": 4603,
      "éĽ¨æ°´": 4604,
      "ç¥Ŀç¦ıä½ł": 4605,
      "Ð°": 4606,
      "è£Ļ": 4607,
      "åº¦è¿ĩ": 4608,
      "éł": 4609,
      "ç»Ļä½łçļĦ": 4610,
      "Ġlong": 4611,
      "åĲĳæĪĳ": 4612,
      "Yeah": 4613,
      "end": 4614,
      "æĪĳæ°¸è¿ľ": 4615,
      "æľŁçĽ¼": 4616,
      "åŃ¤çĭ¬çļĦ": 4617,
      "èŃ": 4618,
      "äºĪ": 4619,
      "åĪ¹éĤ£": 4620,
      "çĤ¸": 4621,
      "æĲı": 4622,
      "è¦ģä½ł": 4623,
      "çĥŃè¡Ģ": 4624,
      "Ġåħ¨": 4625,
      "ç³Ĭæ¶Ĥ": 4626,
      "ä¼¤æĦŁ": 4627,
      "åľ¨æĪĳå¿ĥä¸Ń": 4628,
      "æ±Łå±±": 4629,
      "ä½İå¤´": 4630,
      "è¿·èĮ«": 4631,
      "ĠåĪ°": 4632,
      "å±±çĽŁ": 4633,
      "Ġhold": 4634,
      "è¡Ĺå¤´": 4635,
      "Ġstill": 4636,
      "çĶĺæĦ¿": 4637,
      "èı©èĲ¨": 4638,
      "Ġover": 4639,
      "ä¸ĢçĶŁä¸Ģä¸ĸ": 4640,
      "åįĬçĶŁ": 4641,
      "å¤¢": 4642,
      "çİ»": 4643,
      "æİ©é¥°": 4644,
      "éļ¾èĪį": 4645,
      "æ±¹": 4646,
      "åŃ¤åįķçļĦ": 4647,
      "âĺ": 4648,
      "ä¸įéĢı": 4649,
      "å¸ĺ": 4650,
      "å¤ľæ·±": 4651,
      "æĢİä¼ļ": 4652,
      "æ¼«å¤©": 4653,
      "row": 4654,
      "æľĽä½ł": 4655,
      "ç¢Ĺ": 4656,
      "åĪļå¥½": 4657,
      "éĥ½å·²": 4658,
      "åĨįè¯´": 4659,
      "åİŁåĽł": 4660,
      "èĹıåľ¨": 4661,
      "ber": 4662,
      "åıªå¾Ĺ": 4663,
      "éŁµ": 4664,
      "çĿĢé£İ": 4665,
      "ings": 4666,
      "ç´§å¼ł": 4667,
      "ä¸Ģèº«": 4668,
      "å½ĵåģļ": 4669,
      "éĴ»": 4670,
      "åĶ±åĩº": 4671,
      "ä¿¡å¿µ": 4672,
      "å¤ļå°ĳæ¬¡": 4673,
      "æķħæĦı": 4674,
      "æĪĳä¹Łä¸į": 4675,
      "è¿Ī": 4676,
      "èµ°å¼Ģ": 4677,
      "ä¾§": 4678,
      "ç©¿æ¢Ń": 4679,
      "æĹ¶ç©º": 4680,
      "æ±ł": 4681,
      "ç»ĻæĪĳä¸Ģä¸ª": 4682,
      "çİ»çĴĥ": 4683,
      "æĦŁæ¿Ģ": 4684,
      "æĥĬåĸľ": 4685,
      "çļĦçľ¼": 4686,
      "éģ¥è¿ľçļĦ": 4687,
      "æ£®æŀĹ": 4688,
      "æĪĳå¯¹ä½ł": 4689,
      "å¤ĸéĿ¢": 4690,
      "çļĦçĲĨçĶ±": 4691,
      "åĬĽæ°Ķ": 4692,
      "onely": 4693,
      "å®«": 4694,
      "å¦ĸ": 4695,
      "åĪ«è®©æĪĳ": 4696,
      "æĮ½åĽŀ": 4697,
      "çĻ¾å¹´": 4698,
      "ap": 4699,
      "å¿ĥçģµ": 4700,
      "æ·±å¤ľ": 4701,
      "æĶ¾å¿ĥ": 4702,
      "çĶ·åŃ©": 4703,
      "å¤®": 4704,
      "åľ¨èº«è¾¹": 4705,
      "æĹłç¼ĺ": 4706,
      "Ġsk": 4707,
      "æĮļ": 4708,
      "é¢¨": 4709,
      "æĬ±çĿĢ": 4710,
      "åį´æĺ¯": 4711,
      "æ²īéĩį": 4712,
      "St": 4713,
      "Ġå°Ĩ": 4714,
      "ä¸Ī": 4715,
      "å¹´å¹´": 4716,
      "é£ĺèį¡": 4717,
      "ä¸ĸäºĭ": 4718,
      "åıĳè§ī": 4719,
      "çħ§é¡¾": 4720,
      "æĪĳè¯¥": 4721,
      "Ġåģļ": 4722,
      "åĪ«äººçļĦ": 4723,
      "èĤ¤": 4724,
      "Ġä¸º": 4725,
      "Ġfind": 4726,
      "ç®Ń": 4727,
      "æµ©": 4728,
      "çĤ¹äº®": 4729,
      "éĢıæĺİ": 4730,
      "åı¤èĢģ": 4731,
      "åĿİåĿ·": 4732,
      "ä¸įçĶ±": 4733,
      "ä¹Łä¸įèĥ½": 4734,
      "Ġæĺ¯æĪĳ": 4735,
      "çļĦçľ¼æ³ª": 4736,
      "çļĦæĸ¹åĲĳ": 4737,
      "æī¾å¯»": 4738,
      "å¤±åİ»ä½ł": 4739,
      "éĺ¿å¼¥": 4740,
      "åĺ¿åĺ¿": 4741,
      "è¯±æĥĳ": 4742,
      "å¯¹æĸ¹": 4743,
      "Ġwait": 4744,
      "çĸı": 4745,
      "é¡µ": 4746,
      "éĴ¢": 4747,
      "Ġher": 4748,
      "In": 4749,
      "èĬ½": 4750,
      "çĶ¨åĬĽ": 4751,
      "é¸³": 4752,
      "èĵĿèĵĿ": 4753,
      "ä¹¾": 4754,
      "å¾Ĺä¸įåĪ°": 4755,
      "æ®ĭéħ·": 4756,
      "Ġsw": 4757,
      "æĢĿæĥ³": 4758,
      "åĪ«è®©": 4759,
      "æĮ«": 4760,
      "èĲ½èĬ±": 4761,
      "é©°": 4762,
      "éķ¿éķ¿": 4763,
      "æĽ´å¥½": 4764,
      "æ£Ĵ": 4765,
      "æĭĶ": 4766,
      "å´ĸ": 4767,
      "æĹ¦": 4768,
      "å¾Ĺå¾Ī": 4769,
      "é«ĺåħ´": 4770,
      "èĥĮåıĽ": 4771,
      "çļĦéĶĻ": 4772,
      "å½ĴæĿ¥": 4773,
      "ire": 4774,
      "æĹ¥åĩº": 4775,
      "à½£": 4776,
      "orry": 4777,
      "æ²¡æľīä»Ģä¹Ī": 4778,
      "ç¥ŀå¥ĩ": 4779,
      "æĸ°å¹´": 4780,
      "å°±ç®Ĺæĺ¯": 4781,
      "å°½äºĨ": 4782,
      "ç»´": 4783,
      "èµ°åĲ§": 4784,
      "æīĭæľº": 4785,
      "sel": 4786,
      "çĪ±ä¸İ": 4787,
      "æĢķä½ł": 4788,
      "èĹıçĿĢ": 4789,
      "åĪĿæģĭ": 4790,
      "AY": 4791,
      "ĠæĪĳä¼ļ": 4792,
      "ä¸ĢåĨį": 4793,
      "æ²¡ä»Ģä¹Ī": 4794,
      "arty": 4795,
      "ĠæĢ»": 4796,
      "çĪ±äºĨ": 4797,
      "ä¸įæĥ³åĨį": 4798,
      "åĨĴéĻ©": 4799,
      "uch": 4800,
      "Ġsha": 4801,
      "æ¶Ľ": 4802,
      "åĴĮä½łä¸Ģèµ·": 4803,
      "åĴ¯": 4804,
      "æĪĳè¿Ļ": 4805,
      "æĹłå¤Ħ": 4806,
      "éĤ£ä¹ĪçļĦ": 4807,
      "åĲŁ": 4808,
      "æ´»åľ¨": 4809,
      "èģªæĺİ": 4810,
      "æī£": 4811,
      "Ġpr": 4812,
      "ĠLOVE": 4813,
      "round": 4814,
      "è¾½éĺĶ": 4815,
      "çº³": 4816,
      "æ²Ļæ¼ł": 4817,
      "ä»¤ä½ł": 4818,
      "åĩĦåĩī": 4819,
      "Ġne": 4820,
      "Come": 4821,
      "à½´": 4822,
      "æľīä¸ĢçĤ¹": 4823,
      "ç»ĳ": 4824,
      "äºĳçĥŁ": 4825,
      "è¡¨è¾¾": 4826,
      "Ġå°ı": 4827,
      "è¿ĩæĪĳ": 4828,
      "çľĭåĪ°ä½ł": 4829,
      "æĢİéº½": 4830,
      "æµ·èªĵ": 4831,
      "ä¸įåı¯èĥ½": 4832,
      "éĶĻäºĨ": 4833,
      "è¾ľè´Ł": 4834,
      "æ°Ľ": 4835,
      "çĪ±æĪĳçļĦ": 4836,
      "å®¤": 4837,
      "ç¬Ľ": 4838,
      "ip": 4839,
      "çĶŁæ°Ķ": 4840,
      "å¯¹çĿĢ": 4841,
      "æ¢ģ": 4842,
      "éĿŀå¸¸": 4843,
      "é¢Ĥ": 4844,
      "ate": 4845,
      "æ¾İ": 4846,
      "ç·": 4847,
      "èĲ½ä¸ĭ": 4848,
      "çĻ½å¤´": 4849,
      "ble": 4850,
      "å¦¨": 4851,
      "ãĤģ": 4852,
      "çº¢çº¢": 4853,
      "é«ĺå±±": 4854,
      "æĸ©": 4855,
      "æĶ¾ä¸įä¸ĭ": 4856,
      "å¿įèĢĲ": 4857,
      "åĵĳ": 4858,
      "è¿ľå¤Ħ": 4859,
      "æĬĬå¿ĥ": 4860,
      "å¥ĩæĢª": 4861,
      "æĮĩå°ĸ": 4862,
      "æŁĲä¸ª": 4863,
      "èµĦ": 4864,
      "å¹¼": 4865,
      "åĲ¬è¯´": 4866,
      "è¡¨æ¼Ķ": 4867,
      "è·ĮåĢĴ": 4868,
      "ä½łçļĦçľ¼çĿĽ": 4869,
      "oom": 4870,
      "çĳŁ": 4871,
      "æī«": 4872,
      "ä½łçļĦç¬ĳå®¹": 4873,
      "æĭ¥æĮ¤": 4874,
      "éĻ¤äºĨ": 4875,
      "ä½łçĪ±æĪĳ": 4876,
      "æĹı": 4877,
      "Ġsong": 4878,
      "èĢĮè¿ĩ": 4879,
      "æıĲèµ·": 4880,
      "Ġéļ¾": 4881,
      "æļ§": 4882,
      "ç²Ĵ": 4883,
      "å¬": 4884,
      "åıł": 4885,
      "å°į": 4886,
      "å¸¦ä½ł": 4887,
      "æ¡Į": 4888,
      "é¥±": 4889,
      "æ§": 4890,
      "çĪ±æĦı": 4891,
      "è°ľ": 4892,
      "æīįçŁ¥éģĵ": 4893,
      "éĺ®çļĦ": 4894,
      "èİ«åĲį": 4895,
      "Ġæľª": 4896,
      "æĥ³æĥ³": 4897,
      "Ġtonight": 4898,
      "åĬ¨ä½ľ": 4899,
      "à½ĵ": 4900,
      "åĹ¦": 4901,
      "ds": 4902,
      "Ġå®ĥ": 4903,
      "ä¸§": 4904,
      "åįĩèµ·": 4905,
      "éĢĤåĲĪ": 4906,
      "å¾Īæĥ³": 4907,
      "è£¸": 4908,
      "Ġå°±æĺ¯": 4909,
      "åĪ¥": 4910,
      "é£ĺè¿ĩ": 4911,
      "æĪĸæĺ¯": 4912,
      "Ø¯": 4913,
      "ç°": 4914,
      "ä½łå¯¹": 4915,
      "çľĭä¸įæ¸ħ": 4916,
      "æĶ¾åľ¨": 4917,
      "ä¸ĸçķĮçļĦ": 4918,
      "ä¸ĩæ°´": 4919,
      "è°Ĭ": 4920,
      "èĦ¸åºŀ": 4921,
      "æļĸæļĸ": 4922,
      "To": 4923,
      "é»ĺå¥ĳ": 4924,
      "é¸¯": 4925,
      "èį¡æ¼¾": 4926,
      "çļĦé£İæĻ¯": 4927,
      "æĿ¥ä¸´": 4928,
      "æĹłæīĢ": 4929,
      "æ¢¢": 4930,
      "åĲĮè¡Į": 4931,
      "å¦ĤæŃ¤çļĦ": 4932,
      "razy": 4933,
      "der": 4934,
      "åį«": 4935,
      "éĶ¦": 4936,
      "è§Ĵèī²": 4937,
      "æıĲéĨĴ": 4938,
      "é¸³é¸¯": 4939,
      "å¿ĥæĦ¿": 4940,
      "æ·±æ·±çļĦ": 4941,
      "æľīå¤ªå¤ļ": 4942,
      "æĦ§": 4943,
      "è¢Ń": 4944,
      "æ·¹æ²¡": 4945,
      "Ġä¸ºä½ķ": 4946,
      "ä½łå¯¹æĪĳ": 4947,
      "åİ»çľĭ": 4948,
      "å¿įå¿ĥ": 4949,
      "ä¸Ģå®ļä¼ļ": 4950,
      "ç¼¤": 4951,
      "ä¸ĩåįĥ": 4952,
      "åħ¶å®ŀæĪĳ": 4953,
      "Li": 4954,
      "çĻ½åıĳ": 4955,
      "æĻļå®ī": 4956,
      "ä¼´ä¾£": 4957,
      "å®ģéĿĻ": 4958,
      "Ġreally": 4959,
      "that": 4960,
      "ä¸įéĢļ": 4961,
      "æĪĲåħ¨": 4962,
      "æģĭäºº": 4963,
      "è¡Ĺä¸Ĭ": 4964,
      "Ġany": 4965,
      "Cause": 4966,
      "åĨµ": 4967,
      "å¾Īå¥½": 4968,
      "åħ¥çĿ¡": 4969,
      "time": 4970,
      "æĪĳåĴĮ": 4971,
      "èĬ±æľµ": 4972,
      "åĬ¨äºº": 4973,
      "ìĿ": 4974,
      "çľĭçĿĢæĪĳ": 4975,
      "çĽ®çļĦ": 4976,
      "åħ´å¥ĭ": 4977,
      "æĥ³åĥı": 4978,
      "åĲ¬çĿĢ": 4979,
      "åŃĻ": 4980,
      "éļĨ": 4981,
      "çº¢äºĨ": 4982,
      "è¾¹çļĦ": 4983,
      "çĸ¤": 4984,
      "ç¥Ŀä½ł": 4985,
      "iful": 4986,
      "ĠèĢĮ": 4987,
      "ä½łåĥı": 4988,
      "è¦ģæ±Ĥ": 4989,
      "å¤ªä¹ħ": 4990,
      "Ġå½ĵ": 4991,
      "åľ°ä¸Ĭ": 4992,
      "ç½ļ": 4993,
      "Ġbelieve": 4994,
      "ç¼¤çº·": 4995,
      "çĿĢè¿·": 4996,
      "èĪ¬çļĦ": 4997,
      "æĹ¶å¸¸": 4998,
      "è¿ĺæľīä»Ģä¹Ī": 4999,
      "èĳĹä½ł": 5000,
      "Do": 5001,
      "æĻļé£İ": 5002,
      "Ġhear": 5003,
      "æĶ¾èĤĨ": 5004,
      "åĤ»çĵľ": 5005,
      "å¿ĥçĪ±çļĦ": 5006,
      "ç¬¬ä¸Ģ": 5007,
      "æĪ·": 5008,
      "ãģ£ãģ¦": 5009,
      "LL": 5010,
      "à¤": 5011,
      "çĪ±å·²": 5012,
      "åįļ": 5013,
      "éĥ½æ²¡æľī": 5014,
      "åģ¶çĦ¶": 5015,
      "ä¸įçĿĢ": 5016,
      "ä¸įåºĶè¯¥": 5017,
      "ä¸įå°ıå¿ĥ": 5018,
      "æİ§åĪ¶": 5019,
      "ec": 5020,
      "ç¶": 5021,
      "æĥ¨": 5022,
      "å¹³å®ī": 5023,
      "ç§ĭåĨ¬": 5024,
      "ä¸ĢçĽ´åľ¨": 5025,
      "up": 5026,
      "çļĦçģ«": 5027,
      "åīįéĿ¢": 5028,
      "èĲ§": 5029,
      "æ°Ķæģ¯": 5030,
      "åĦ¿å¥³": 5031,
      "è¿İæİ¥": 5032,
      "æĪĳçľĭè§ģ": 5033,
      "Ġtry": 5034,
      "çķĻç»Ļ": 5035,
      "æľīä¸ĢäºĽ": 5036,
      "ĠåĸĶ": 5037,
      "é£ĺèĲ½": 5038,
      "é¸ŁåĦ¿": 5039,
      "æĪĳä»¬çļĦçĪ±": 5040,
      "self": 5041,
      "Woo": 5042,
      "å¸Ń": 5043,
      "åĨ·éĿĻ": 5044,
      "çĽ®å±İ": 5045,
      "åĲīä»ĸ": 5046,
      "å¤©é»ĳ": 5047,
      "è°±": 5048,
      "é£ŀæī¬": 5049,
      "èĻ«": 5050,
      "å¾®å¾®": 5051,
      "çļĦè·¯ä¸Ĭ": 5052,
      "æĪĳä»¥ä¸º": 5053,
      "éĢį": 5054,
      "ä»Ģä¹Īéĥ½ä¸į": 5055,
      "æ¶Ł": 5056,
      "æ²Ļæ»©": 5057,
      "Now": 5058,
      "æĪĳåĥı": 5059,
      "å®Įç¾İçļĦ": 5060,
      "ä¸įè¿ĩæĺ¯": 5061,
      "çĵ¶": 5062,
      "Ġshow": 5063,
      "æ¼«æŃ¥": 5064,
      "éĹªäº®": 5065,
      "æĬĬå®ĥ": 5066,
      "æľ¬æĿ¥": 5067,
      "utiful": 5068,
      "å¹¶èĤ©": 5069,
      "æĶĢ": 5070,
      "ç¦»æĪĳ": 5071,
      "ise": 5072,
      "èº²åľ¨": 5073,
      "éĺ»æĮ¡": 5074,
      "åı¦ä¸Ģä¸ª": 5075,
      "ç¤¾ä¼ļ": 5076,
      "è¯´å£°": 5077,
      "eet": 5078,
      "åĭĩæķ¢çļĦ": 5079,
      "èĲ¥": 5080,
      "Ġsun": 5081,
      "é«ĺåİŁ": 5082,
      "ç¼ĸç»ĩ": 5083,
      "è¿Ļåľº": 5084,
      "æŀ«": 5085,
      "æµªèĬ±": 5086,
      "ä½ıäºĨ": 5087,
      "è·ŁçĿĢæĪĳ": 5088,
      "çĶľèľľçļĦ": 5089,
      "çħİçĨ¬": 5090,
      "ä¸ĢçĶŁçļĦ": 5091,
      "come": 5092,
      "ä¸ĩå¹´": 5093,
      "ç¥Īæ±Ĥ": 5094,
      "ä¹Łèĥ½": 5095,
      "åīįè¿Ľ": 5096,
      "ä½łèĭ¥": 5097,
      "ĠæĽ´": 5098,
      "ä½łçĶ¨": 5099,
      "ä¸įåĽŀå¤´": 5100,
      "åĲĵ": 5101,
      "æĻ´å¤©": 5102,
      "Ġq": 5103,
      "æľ¯": 5104,
      "æĥħæĢĢ": 5105,
      "æĪĳä»¬ä¹ĭéĹ´": 5106,
      "å®¶éĩĮ": 5107,
      "åĮħåĽ´": 5108,
      "æ¦Ĥ": 5109,
      "çļĦè·Ŀç¦»": 5110,
      "æĳ§": 5111,
      "åĨ¥": 5112,
      "é¡¿": 5113,
      "åļ£": 5114,
      "ä¸įç¦»": 5115,
      "å¤©ä¸ĬçļĦ": 5116,
      "Ġmiss": 5117,
      "çĥŁèĬ±": 5118,
      "çº¦ä¼ļ": 5119,
      "ä½łéĥ½": 5120,
      "ä½łåĴĮ": 5121,
      "çĶŁæĹ¥": 5122,
      "ãģ©": 5123,
      "ä¾Ŀæģĭ": 5124,
      "å¤įæĿĤ": 5125,
      "çļĦæĢĿå¿µ": 5126,
      "æĭ³": 5127,
      "åºŃ": 5128,
      "çħĮ": 5129,
      "æĥ³çļĦ": 5130,
      "è¶Ĭè¿ĩ": 5131,
      "EA": 5132,
      "Ġä»į": 5133,
      "çĿĩ": 5134,
      "åī¯": 5135,
      "åĢļ": 5136,
      "à½ł": 5137,
      "çªĹåīį": 5138,
      "èķĬ": 5139,
      "æ±¹æ¶Į": 5140,
      "Ġour": 5141,
      "æĬĢ": 5142,
      "åĲ¬ä½ł": 5143,
      "æĺŁè¾°": 5144,
      "ĠMe": 5145,
      "éĢįéģ¥": 5146,
      "åĮº": 5147,
      "çĽ¸åĲĮ": 5148,
      "ĠLA": 5149,
      "å¤©éĻħ": 5150,
      "çļĦè®°å¿Ĩ": 5151,
      "æŃ¹": 5152,
      "å°ıåŃ©": 5153,
      "Ġfly": 5154,
      "æĪĳæĥ³ä½ł": 5155,
      "ä¸įå¤ª": 5156,
      "åķĨ": 5157,
      "è£ħä½ľ": 5158,
      "èĵĿèī²çļĦ": 5159,
      "èĥľåĪ©": 5160,
      "é¹°": 5161,
      "æĥ³è¦ģçļĦ": 5162,
      "äºı": 5163,
      "Ġshe": 5164,
      "rong": 5165,
      "ä¸Ĭå¸Ŀ": 5166,
      "Ġwould": 5167,
      "åĨĻä¸ĭ": 5168,
      "éĤª": 5169,
      "æĢİä¹Īä¼ļ": 5170,
      "å¿įåıĹ": 5171,
      "Ġåıªæĺ¯": 5172,
      "ç¬ĳçļĦ": 5173,
      "Ġbre": 5174,
      "éĹªèĢĢ": 5175,
      "åİĮåĢ¦": 5176,
      "æĬĹæĭĴ": 5177,
      "å¯¥": 5178,
      "éĤ£ä»½": 5179,
      "é»ĳçĻ½": 5180,
      "ä¼łå¥ĩ": 5181,
      "èĤ¯å®ļ": 5182,
      "è½»è½»åľ°": 5183,
      "å¨ĥå¨ĥ": 5184,
      "çĭ¼çĭ": 5185,
      "æľĢæ·±": 5186,
      "åŁº": 5187,
      "åĬ±": 5188,
      "éĹŃä¸Ĭçľ¼çĿĽ": 5189,
      "Ġlittle": 5190,
      "çļĦçĹĽ": 5191,
      "å¥´": 5192,
      "æĪĳä¸įçŁ¥éģĵ": 5193,
      "é¼»": 5194,
      "èĩªä»İ": 5195,
      "åĩºåİ»": 5196,
      "çĿģå¼Ģ": 5197,
      "éĢĴ": 5198,
      "âĪ": 5199,
      "Ġä¹Łè®¸": 5200,
      "è¿ĩç¨ĭ": 5201,
      "æĹłåı¯": 5202,
      "è¯´äºĨ": 5203,
      "éĿĻéĿĻçļĦ": 5204,
      "æİª": 5205,
      "åĲİéĢĢ": 5206,
      "è·¯è¿ĩ": 5207,
      "åģļåĪ°": 5208,
      "çīĩçīĩ": 5209,
      "æĥ³å¿µä½ł": 5210,
      "æľĢç»Ī": 5211,
      "åĸī": 5212,
      "éĢļéĢļ": 5213,
      "ä¸įåģľçļĦ": 5214,
      "çĭ¼çĭĪ": 5215,
      "ÙĤ": 5216,
      "éģŃ": 5217,
      "ç©ºç©º": 5218,
      "ä½¢": 5219,
      "è¯´è°İ": 5220,
      "åĪ»éª¨": 5221,
      "çĨĦçģŃ": 5222,
      "Some": 5223,
      "è¦ģåİ»": 5224,
      "çľŁæĺ¯": 5225,
      "é²ģ": 5226,
      "åįłæį®": 5227,
      "ä¹Įäºĳ": 5228,
      "çĥŃéĹ¹": 5229,
      "èĩªçĶ±çļĦ": 5230,
      "æĺ¯ä¸Ģåľº": 5231,
      "è½¯å¼±": 5232,
      "ä»Ĭä¸ĸ": 5233,
      "éĻĢä½Ľ": 5234,
      "åĪ·": 5235,
      "ä½ķèĭ¦": 5236,
      "ä¸Ģä¸ªäººçļĦ": 5237,
      "åĵĦ": 5238,
      "ish": 5239,
      "Ġfriend": 5240,
      "Ġåıªæľī": 5241,
      "ç»ľ": 5242,
      "Ġstop": 5243,
      "ç¼łç»ķ": 5244,
      "Ġä¸įä¼ļ": 5245,
      "åľ¨é£İä¸Ń": 5246,
      "ä¸ĭä¸ª": 5247,
      "è¹Ī": 5248,
      "æĪĳæĽ¾ç»ı": 5249,
      "è¿Ŀ": 5250,
      "çľĭæ¸ħ": 5251,
      "éķĩ": 5252,
      "é£ŀåĪ°": 5253,
      "ala": 5254,
      "æļ§æĺ§": 5255,
      "OW": 5256,
      "Ġboy": 5257,
      "ud": 5258,
      "åĽĬ": 5259,
      "Ġdar": 5260,
      "ç»ļ": 5261,
      "æĺ¾å¾Ĺ": 5262,
      "çĪ±ä¸į": 5263,
      "è¯·ä¸įè¦ģ": 5264,
      "åĺ´è§Ĵ": 5265,
      "ä¹łæĥ¯äºĨ": 5266,
      "ä¸įå®ļ": 5267,
      "æµ®çİ°": 5268,
      "åı¨": 5269,
      "åĺħ": 5270,
      "å®īåħ¨": 5271,
      "åľ¨çŃīå¾ħ": 5272,
      "åĴģ": 5273,
      "è¾¨": 5274,
      "é¸¿": 5275,
      "Ġstay": 5276,
      "åī§æĥħ": 5277,
      "å¼¥æ¼«": 5278,
      "æ¸¡è¿ĩ": 5279,
      "èı©æıĲ": 5280,
      "åı¯ä¸įåı¯ä»¥": 5281,
      "åħ¬ä¸»": 5282,
      "ia": 5283,
      "ä½łåı¯ä»¥": 5284,
      "è½¨": 5285,
      "åĴ½": 5286,
      "çº§": 5287,
      "ç©ºä¸Ń": 5288,
      "********": 5289,
      "åĴ¬": 5290,
      "è¶Ĭæĺ¯": 5291,
      "èģļæķ£": 5292,
      "æļĤæĹ¶": 5293,
      "å°ıå°ıçļĦ": 5294,
      "ä¼ģ": 5295,
      "åĪ°æ°¸è¿ľ": 5296,
      "åķ¸": 5297,
      "åĸĥ": 5298,
      "ä¿¡å¿ĥ": 5299,
      "æ¯Ķä½ł": 5300,
      "å¤©æ¶¯æµ·è§Ĵ": 5301,
      "ure": 5302,
      "ç¾½": 5303,
      "å®ĮæĪĲ": 5304,
      "ä»ĸè¯´": 5305,
      "æ°Ķæ°Ľ": 5306,
      "éħ¿": 5307,
      "æº¶": 5308,
      "æĵ¦èĤ©": 5309,
      "çĸĨ": 5310,
      "äº¤æį¢": 5311,
      "ä¹Ļ": 5312,
      "æ¸Ĺ": 5313,
      "åħīæĺİ": 5314,
      "å¤±æĦı": 5315,
      "çħŀ": 5316,
      "çĶµè§Ĩ": 5317,
      "ies": 5318,
      "è¯ŀ": 5319,
      "äººçĶŁçļĦ": 5320,
      "æ±Ĺæ°´": 5321,
      "Why": 5322,
      "æĿ¥è¿ĩ": 5323,
      "èµ·èĪŀ": 5324,
      "åģļçļĦ": 5325,
      "æºĥ": 5326,
      "è®ĵ": 5327,
      "æ¬¢è¿İ": 5328,
      "åħĥ": 5329,
      "ç¬ĳå£°": 5330,
      "Ġwhere": 5331,
      "åģļäºº": 5332,
      "æĢģåº¦": 5333,
      "çļĦæ¨¡æł·": 5334,
      "à½²à¼ĭ": 5335,
      "Say": 5336,
      "ä»İæĿ¥æ²¡æľī": 5337,
      "å¾Ĺèµ·": 5338,
      "é©³": 5339,
      "ĠMy": 5340,
      "ä»°æľĽ": 5341,
      "æĹłå¸¸": 5342,
      "åĩºåı£": 5343,
      "èĢĮå·²": 5344,
      ".....": 5345,
      "åĵ¦åĵ¦": 5346,
      "æªĲ": 5347,
      "çļĦå¿«ä¹Ĳ": 5348,
      "ä¸įåłª": 5349,
      "èµ°åĲĳ": 5350,
      "ret": 5351,
      "å¥³åĦ¿": 5352,
      "ä¸īå¹´": 5353,
      "éĺ¿å¼¥éĻĢä½Ľ": 5354,
      "ä¸ĢåĪĨ": 5355,
      "çĽ¸çº¦": 5356,
      "æ¢¦å¹»": 5357,
      "ç¾İå¦Ļ": 5358,
      "ç¦»åĲĪ": 5359,
      "é£ŀèĪŀ": 5360,
      "Ġä¸įæĥ³": 5361,
      "other": 5362,
      "ĠBaby": 5363,
      "side": 5364,
      "æĿ¥è¯´": 5365,
      "å¹ħ": 5366,
      "æĺİäº®": 5367,
      "å¹´çºª": 5368,
      "çº·çº·": 5369,
      "ä½łèĥ½": 5370,
      "æ¼ı": 5371,
      "æ²³æ°´": 5372,
      "å¿ĥèĤĿ": 5373,
      "åį¸": 5374,
      "åĺ»": 5375,
      "çļĦæ°´": 5376,
      "çļĦå§ĳå¨ĺ": 5377,
      "æĻļéľŀ": 5378,
      "Ha": 5379,
      "å¥½è¿ĩ": 5380,
      "Ġä¸įèĥ½": 5381,
      "æķ£äºĨ": 5382,
      "ice": 5383,
      "åĲīç¥¥": 5384,
      "ä½łå·²ç»ı": 5385,
      "èĢĹ": 5386,
      "è¿½å¿Ĩ": 5387,
      "Ġgoodbye": 5388,
      "åĽŀåİ»": 5389,
      "éĻ·åħ¥": 5390,
      "æ²¸": 5391,
      "å¯¹çĻ½": 5392,
      "ä¼¤äºĨ": 5393,
      "ä»İæ²¡": 5394,
      "é¡½": 5395,
      "go": 5396,
      "Ùĥ": 5397,
      "èµ°çļĦ": 5398,
      "ä»İå¤´": 5399,
      "æĺ¥å¤ı": 5400,
      "ä¾Ŀä¾Ŀ": 5401,
      "åĭ¤": 5402,
      "åĴĮä½łåľ¨ä¸Ģèµ·": 5403,
      "Ġlight": 5404,
      "é£ŀåĲĳ": 5405,
      "èĤ²": 5406,
      "ä¸įåĨįæľī": 5407,
      "æµ®äºĳ": 5408,
      "éģł": 5409,
      "ç¾¡æħķ": 5410,
      "çļĦç¬ĳå®¹": 5411,
      "åıĺå¹»": 5412,
      "å°ıéĽ¨": 5413,
      "éķ¿åıĳ": 5414,
      "çĮĽ": 5415,
      "ä½łåĲ¬": 5416,
      "æľīçĪ±": 5417,
      "Ġsing": 5418,
      "èĤļ": 5419,
      "åı«äºº": 5420,
      "æĦ¤": 5421,
      "æľĢè¿ĳ": 5422,
      "åĪ«çļĦ": 5423,
      "èīº": 5424,
      "ä¸»è§Ĵ": 5425,
      "å§¿æĢģ": 5426,
      "ä¼Ĳ": 5427,
      "èµļ": 5428,
      "äº²äº²": 5429,
      "éĿĴéĿĴ": 5430,
      "ä¸Ģåº§": 5431,
      "å¾ª": 5432,
      "å¤ļè¿ľ": 5433,
      "èĤ¥": 5434,
      "åĽĽæĸ¹": 5435,
      "é£İçŃĿ": 5436,
      "æ³ªæ»´": 5437,
      "åģļä½łçļĦ": 5438,
      "There": 5439,
      "åĩĿæľĽ": 5440,
      "éĥ½æĺ¯ä½ł": 5441,
      "ç®±": 5442,
      "èĢĥéªĮ": 5443,
      "æĪĳåİ»": 5444,
      "åįı": 5445,
      "æķ·": 5446,
      "éĤĦ": 5447,
      "æµģè¿ĩ": 5448,
      "HA": 5449,
      "Ġæĺ¯åĲ¦": 5450,
      "æĪĳéľĢè¦ģ": 5451,
      "è®®": 5452,
      "æĥ³çĿĢä½ł": 5453,
      "æĽ³": 5454,
      "çŃīäºİ": 5455,
      "åľ¨éĤ£éĩĮ": 5456,
      "å°±ä¸į": 5457,
      "æīįæľī": 5458,
      "å¥īçĮ®": 5459,
      "æĬ¢": 5460,
      "è¡į": 5461,
      "nder": 5462,
      "æĺ¯éĤ£": 5463,
      "åľ¨çľ¼åīį": 5464,
      "èµ´": 5465,
      "éŃħ": 5466,
      "æĪĳæĺ¯ä½łçļĦ": 5467,
      "è¿Ļä¸Ģæ¬¡": 5468,
      "ä¹Łåľ¨": 5469,
      "æĹłç©·": 5470,
      "å¥½ä¸įå¥½": 5471,
      "å®ĪçĿĢ": 5472,
      "åģ¥åº·": 5473,
      "æ±ĩ": 5474,
      "Ġå¤ľ": 5475,
      "Ġæĺ¯ä½ł": 5476,
      "ä¿ĥ": 5477,
      "å®Įæķ´": 5478,
      "åĿ¦çĻ½": 5479,
      "Ġä¼¼": 5480,
      "çľĭéĤ£": 5481,
      "æīĭçīµæīĭ": 5482,
      "æĪĲå°±": 5483,
      "éľ¸": 5484,
      "âĶ": 5485,
      "Ġè¿ĺæľī": 5486,
      "æĺ¯ä¸Ģä¸ª": 5487,
      "è¾Ĺ": 5488,
      "åıĪä½ķå¿ħ": 5489,
      "çŃīçŃī": 5490,
      "æĢ»è¦ģ": 5491,
      "æĺŁæľŁ": 5492,
      "çļĦç¾İä¸½": 5493,
      "æĬĬèĩªå·±": 5494,
      "ä¾Ŀç¨Ģ": 5495,
      "say": 5496,
      "æīįæĺİçĻ½": 5497,
      "åĬ¨çļĦ": 5498,
      "è·Łéļı": 5499,
      "ç»Ŀä¸į": 5500,
      "åĪ°å¦Ĥä»Ĭ": 5501,
      "çľŁçĽ¸": 5502,
      "èº«èº¯": 5503,
      "ME": 5504,
      "åĬ«": 5505,
      "ĠOH": 5506,
      "è´£ä»»": 5507,
      "éĽ¨æīĵ": 5508,
      "åĮ»": 5509,
      "ä¼Łå¤§": 5510,
      "çİĩ": 5511,
      "å±±æ²³": 5512,
      "åĢº": 5513,
      "æ´²": 5514,
      "Ġcom": 5515,
      "Ġbet": 5516,
      "æħ¢æħ¢åľ°": 5517,
      "èħ¿": 5518,
      "åĸĿéĨī": 5519,
      "ool": 5520,
      "ĠYeah": 5521,
      "US": 5522,
      "Ġç¬ĳ": 5523,
      "è¯´çĿĢ": 5524,
      "åħ¨åĬĽ": 5525,
      "æĪĳè¦ģä½ł": 5526,
      "åıŃ": 5527,
      "Ġmuch": 5528,
      "åĩłå¹´": 5529,
      "çķĻä¸ĭçļĦ": 5530,
      "èħĶ": 5531,
      "åķ¼": 5532,
      "åĸľæĤ¦": 5533,
      "çļĦéĤ£ä¸ª": 5534,
      "æĪĳçľĭ": 5535,
      "ä¸ĢçĽı": 5536,
      "ä¸Ńåįİ": 5537,
      "å²Ĺ": 5538,
      "èĩªçĶ±èĩªåľ¨": 5539,
      "æĪĪ": 5540,
      "ä¾µ": 5541,
      "æĹ¥æľĪ": 5542,
      "çĶľè¨Ģ": 5543,
      "ä¸Ģå¿ĥ": 5544,
      "æł¡": 5545,
      "çĶŁåĳ½ä¸Ń": 5546,
      "åħ½": 5547,
      "æĿ¥åİ»": 5548,
      "Na": 5549,
      "çĤ«": 5550,
      "æ¶¦": 5551,
      "Ġcare": 5552,
      "éº»æľ¨": 5553,
      "çĪ¶æ¯į": 5554,
      "but": 5555,
      "ĠçĪ±æĥħ": 5556,
      "å²Ń": 5557,
      "ç¿ł": 5558,
      "è¿ĽäºĨ": 5559,
      "çıįéĩį": 5560,
      "éĢĥç¦»": 5561,
      "Ġthrough": 5562,
      "æ²¥": 5563,
      "Ġthan": 5564,
      "ĠåĽłä¸º": 5565,
      "èĢĮåİ»": 5566,
      "Ġå·²ç»ı": 5567,
      "åĽŀæľĽ": 5568,
      "çĤ¼": 5569,
      "ä¼´çĿĢ": 5570,
      "ĠØ¦": 5571,
      "æİłè¿ĩ": 5572,
      "LA": 5573,
      "æľĢçĪ±çļĦ": 5574,
      "æ²¡æľīäºĨ": 5575,
      "å½Ĵåİ»": 5576,
      "åĨ°åĨ·çļĦ": 5577,
      "çĸļ": 5578,
      "Ġcall": 5579,
      "æĳĩæĳĩ": 5580,
      "å¦¥": 5581,
      "ä»İæĿ¥ä¸į": 5582,
      "ãĢĳ": 5583,
      "ä¸Ĭæ¼Ķ": 5584,
      "è¿ĺæľª": 5585,
      "Ġwere": 5586,
      "ãģªãģŁ": 5587,
      "åİĭæĬĳ": 5588,
      "how": 5589,
      "ĠçķĻ": 5590,
      "æĿ¥çĶŁ": 5591,
      "æĪĳçļĦå®¶": 5592,
      "æīĭå¿ĥ": 5593,
      "ĠJ": 5594,
      "çļĦäºĳ": 5595,
      "æĪĳçļĦæ³ª": 5596,
      "èĩªç§ģ": 5597,
      "æĤ£": 5598,
      "å¤Ħå¤Ħ": 5599,
      "æĴ©": 5600,
      "å»ĵ": 5601,
      "æģĲæĥ§": 5602,
      "ĠèĬ±": 5603,
      "çļĦæĹ¶åħī": 5604,
      "åĨįåİ»": 5605,
      "é«ĺé£ŀ": 5606,
      "æ½ľ": 5607,
      "åŁĭæĢ¨": 5608,
      "åĪºçĹĽ": 5609,
      "è¯´åĩºåı£": 5610,
      "ye": 5611,
      "Ġäº¦": 5612,
      "ä½łæ°¸è¿ľ": 5613,
      "æĺĤ": 5614,
      "é¢Ĭ": 5615,
      "æĩ¦": 5616,
      "For": 5617,
      "æĺ¼": 5618,
      "ä¸ªäºº": 5619,
      "èĵĿèī²": 5620,
      "æ²¿éĢĶ": 5621,
      "Ġä»Ģä¹Ī": 5622,
      "Ġä¹Łä¸į": 5623,
      "è¯¸": 5624,
      "é£İéľľ": 5625,
      "åĪĨä¸įæ¸ħ": 5626,
      "æ»¡åľ°": 5627,
      "åŃ¦ä¹ł": 5628,
      "æ¿Ģæĥħ": 5629,
      "ä¸ĢæĶ¯": 5630,
      "åĪ¤": 5631,
      "æ¶¡": 5632,
      "Ġdr": 5633,
      "èį¡èį¡": 5634,
      "Ġmo": 5635,
      "Ġsm": 5636,
      "èĤ¡": 5637,
      "æ¹ĥ": 5638,
      "åģĩä½¿": 5639,
      "çļĦæŃĮå£°": 5640,
      "å®¿åĳ½": 5641,
      "Ġä½ķ": 5642,
      "è¿ĩå®¢": 5643,
      "åĽŀçľ¸": 5644,
      "èĭ¥ä½ł": 5645,
      "è¹¦": 5646,
      "ãģĤãģªãģŁ": 5647,
      "åģļä½ł": 5648,
      "ç§įç§į": 5649,
      "åķ¦åķ¦åķ¦åķ¦åķ¦": 5650,
      "æĶ»": 5651,
      "æĪĳä¸įæĦ¿": 5652,
      "çĬ¹å¦Ĥ": 5653,
      "How": 5654,
      "yeah": 5655,
      "æľīå¿ĥ": 5656,
      "ä»ĸä¹¡": 5657,
      "éķ¿ä¹ħ": 5658,
      "æ£µ": 5659,
      "æ·ĺ": 5660,
      "çĭĤé£İ": 5661,
      "12": 5662,
      "çĪ±åľ¨": 5663,
      "æĸ½": 5664,
      "æĨ§": 5665,
      "Ġever": 5666,
      "å¿Ļç¢Į": 5667,
      "ears": 5668,
      "æ¾İæ¹ĥ": 5669,
      "ĠçľŁçļĦ": 5670,
      "æīĭéĩĮ": 5671,
      "æĦŁè§īåĪ°": 5672,
      "ä¹±äºĨ": 5673,
      "åĪĴè¿ĩ": 5674,
      "æĹłå°½çļĦ": 5675,
      "åįİä¸½": 5676,
      "On": 5677,
      "äºĽä»Ģä¹Ī": 5678,
      "è¾īçħĮ": 5679,
      "éĥ½ä¸įä¼ļ": 5680,
      "çľ¼çľ¶": 5681,
      "åıĳåĳĨ": 5682,
      "æĢİä¹Īæł·": 5683,
      "æ±Łæ°´": 5684,
      "çĲ´å£°": 5685,
      "åĨħå¿ĥçļĦ": 5686,
      "èµ°è¿ĩçļĦ": 5687,
      "å¹´ä»£": 5688,
      "æĹ¥åĲİ": 5689,
      "å½¼æŃ¤çļĦ": 5690,
      "åħ±åĲĮ": 5691,
      "This": 5692,
      "for": 5693,
      "æĪĳèº«è¾¹": 5694,
      "åĽŀæĥ³": 5695,
      "æĺ¥åħī": 5696,
      "ĠME": 5697,
      "Ġtrue": 5698,
      "åĨįä¹Łä¸į": 5699,
      "æĬ±çĿĢä½ł": 5700,
      "åĶ¤éĨĴ": 5701,
      "åĳĢåĳĢ": 5702,
      "è¿·æģĭ": 5703,
      "Ġhigh": 5704,
      "æ±ŁåįĹ": 5705,
      "ç¿©ç¿©": 5706,
      "è¾Ĺè½¬": 5707,
      "éĤ£å°±": 5708,
      "å®¶çļĦ": 5709,
      "å®ĺ": 5710,
      "éĻĦ": 5711,
      "æĪĳä»¬åľ¨": 5712,
      "éĽ¨å¤©": 5713,
      "æħ§": 5714,
      "Can": 5715,
      "æĪĳæĢķ": 5716,
      "å¥½äºĨ": 5717,
      "æĹ©å·²ç»ı": 5718,
      "çĿĢæ³ª": 5719,
      "çľ¼è§Ĵ": 5720,
      "å¦Ħæĥ³": 5721,
      "å°±æľī": 5722,
      "çŁ¥å½±": 5723,
      "æ·±åĪ»": 5724,
      "å¾ĢæĺĶ": 5725,
      "æĽ²æĬĺ": 5726,
      "Ġçİ°åľ¨": 5727,
      "åĪ®": 5728,
      "å¿ĥåľ¨": 5729,
      "æĥħç¼ĺ": 5730,
      "ç¬ĳè¯Ŀ": 5731,
      "èĲĮ": 5732,
      "å¢ŀ": 5733,
      "Ġrain": 5734,
      "æĦŁä¼¤": 5735,
      "ä¸įèĥ½å¤Ł": 5736,
      "å¿įä½ı": 5737,
      "æĹłæĦı": 5738,
      "é¥¿": 5739,
      "èľľè¯Ń": 5740,
      "æĨ¨": 5741,
      "Ġend": 5742,
      "æĬ¹åİ»": 5743,
      "çĭłçĭł": 5744,
      "don": 5745,
      "Ġå°±ç®Ĺ": 5746,
      "Ġle": 5747,
      "æĢĢä¸Ń": 5748,
      "Ġalone": 5749,
      "ä¼¸åĩº": 5750,
      "å¤ļäºĨ": 5751,
      "æĪĳä»¬æĺ¯": 5752,
      "èĢģåİ»": 5753,
      "åľ¨ä½łèº«æĹģ": 5754,
      "è¿Ĳæ°Ķ": 5755,
      "He": 5756,
      "å¤ªå¿«": 5757,
      "èĥĸ": 5758,
      "çĮİ": 5759,
      "åĵįèµ·": 5760,
      "Ġä¸Ģä¸ª": 5761,
      "å°±ä¸įä¼ļ": 5762,
      "ãģ¿": 5763,
      "å¼ĢæĶ¾": 5764,
      "æ¢¨": 5765,
      "çŀ§": 5766,
      "ãģĹãģ¦": 5767,
      "å¥ĸ": 5768,
      "å°±å½ĵ": 5769,
      "ãģĽ": 5770,
      "èµ°èµ°": 5771,
      "ç¼ļ": 5772,
      "èĦļä¸ĭ": 5773,
      "çļĦé¦Ļ": 5774,
      "æľīç§į": 5775,
      "Ðµ": 5776,
      "åĨł": 5777,
      "ãĢĲ": 5778,
      "çĽ¸çĪ±çļĦ": 5779,
      "æİı": 5780,
      "éľį": 5781,
      "åĺĢ": 5782,
      "åįķèº«": 5783,
      "æľĢæĢķ": 5784,
      "mber": 5785,
      "æ·ĭæ¹¿": 5786,
      "æĹłæĥħçļĦ": 5787,
      "Ġea": 5788,
      "çļĦå®¶": 5789,
      "æľ½": 5790,
      "å¥¥": 5791,
      "å±ı": 5792,
      "è§ģåĪ°": 5793,
      "æĻķ": 5794,
      "è½®å»ĵ": 5795,
      "çļĦä¸į": 5796,
      "çļĦæ¢¦æĥ³": 5797,
      "éĤĢ": 5798,
      "æĪĳä¸įæĢķ": 5799,
      "åĩłæ¬¡": 5800,
      "éº»çĥ¦": 5801,
      "èĸĩ": 5802,
      "åĴ¸": 5803,
      "æ²¡åħ³ç³»": 5804,
      "ers": 5805,
      "ä¸įéľĢ": 5806,
      "ä¸įèĥ½åĨį": 5807,
      "ĠçĪ±ä½ł": 5808,
      "çļĦçĶ»éĿ¢": 5809,
      "åľ¨æ¢¦ä¸Ń": 5810,
      "ç¨ļ": 5811,
      "çĭłå¿ĥ": 5812,
      "END": 5813,
      "å¥½å¥½çļĦ": 5814,
      "æ¢¦ä¸ŃçļĦ": 5815,
      "ç¦»ä¸įå¼Ģ": 5816,
      "çĥŃçļĦ": 5817,
      "åľ¨å¿ĥå¤´": 5818,
      "çº·é£ŀ": 5819,
      "éĢħ": 5820,
      "æĪĳæĺ¯è°ģ": 5821,
      "æĭīæĭī": 5822,
      "èĶļ": 5823,
      "è¼": 5824,
      "ä¸ĭä¸Ģä¸ª": 5825,
      "éĩįéĩį": 5826,
      "éĽªå±±": 5827,
      "æĶ¶èİ·": 5828,
      "ä¸ĢæŃ¥ä¸ĢæŃ¥": 5829,
      "æŃ»å¿ĥ": 5830,
      "æ»´çŃĶ": 5831,
      "atch": 5832,
      "å½¢å®¹": 5833,
      "à¾±": 5834,
      "ĠçľŁ": 5835,
      "ĠæĽ¾": 5836,
      "ĠæĪĳæĥ³": 5837,
      "éª¤": 5838,
      "çĶľçĶľ": 5839,
      "åĬłæ²¹": 5840,
      "ade": 5841,
      "éĩĬæĢĢ": 5842,
      "ä¸įæ¸ħæ¥ļ": 5843,
      "åĩĳ": 5844,
      "å°ıæĹ¶åĢĻ": 5845,
      "é©±": 5846,
      "äº§": 5847,
      "åĨ·åĨ·çļĦ": 5848,
      "å¨ĳ": 5849,
      "æĬĵä½ı": 5850,
      "ä¸Ģçľĭ": 5851,
      "éļľ": 5852,
      "çĽ¸å¤Ħ": 5853,
      "çīĩæ®µ": 5854,
      "æºľæºľ": 5855,
      "æķ·è¡į": 5856,
      "äºŃ": 5857,
      "éĥ½å¸Ĥ": 5858,
      "Ġhome": 5859,
      "çļĦéħĴ": 5860,
      "ä½łæĢ»": 5861,
      "ä¸įä¼ĳ": 5862,
      "åıªæĦ¿": 5863,
      "åıĪåĨį": 5864,
      "æ¯ıå¤ľ": 5865,
      "å¤ļå°ĳå¹´": 5866,
      "Ġkeep": 5867,
      "Ġsky": 5868,
      "ä¸Ģåįĥ": 5869,
      "éĤĤ": 5870,
      "æķ´å¤ľ": 5871,
      "äºĮåįģ": 5872,
      "ä¹ĸä¹ĸ": 5873,
      "æĪĳæĹłæ³ķ": 5874,
      "ç»Ĭ": 5875,
      "æĸľéĺ³": 5876,
      "of": 5877,
      "çļĦåŁİå¸Ĥ": 5878,
      "æľªèĥ½": 5879,
      "çīĩåĪ»": 5880,
      "å´ĩ": 5881,
      "åĪºæ¿Ģ": 5882,
      "å¼ºæ±Ĥ": 5883,
      "å¤ļä¹ĪçļĦ": 5884,
      "åı¯çŁ¥": 5885,
      "ä»»åĩŃ": 5886,
      "do": 5887,
      "Ġforever": 5888,
      "åįĥè¨Ģ": 5889,
      "æģ©æĢ¨": 5890,
      "çļĦæĦŁæĥħ": 5891,
      "åľ¨åĵª": 5892,
      "æµ¸": 5893,
      "éĽ¢": 5894,
      "Ġstar": 5895,
      "æ²Ł": 5896,
      "ä¸ĭä¸Ģ": 5897,
      "å¥³åŃĲ": 5898,
      "è¿·è·¯": 5899,
      "ä¼´ä½ł": 5900,
      "åİĨåı²": 5901,
      "ç¼ĵç¼ĵ": 5902,
      "éĤĤéĢħ": 5903,
      "ting": 5904,
      "æĪĳåģļ": 5905,
      "è¿Ļæĺ¯æĪĳ": 5906,
      "çĤİ": 5907,
      "è¾¹ç¼ĺ": 5908,
      "éĹ¨å¤ĸ": 5909,
      "åĩĮæĻ¨": 5910,
      "è¬": 5911,
      "īè·": 5912,
      "å®°": 5913,
      "éĥ½èĥ½": 5914,
      "ä½Ĩæĺ¯æĪĳ": 5915,
      "æĨ¬": 5916,
      "èħ¹": 5917,
      "Ġor": 5918,
      "ä»ĬæľĿ": 5919,
      "Ġfree": 5920,
      "è¿·ç¦»": 5921,
      "ä½łçŁ¥": 5922,
      "çĥŃçĥĪ": 5923,
      "æĹ§æĹ¥": 5924,
      "èħĲ": 5925,
      "æ®ĭçķĻ": 5926,
      "è¯¥å¦Ĥä½ķ": 5927,
      "è¿·äººçļĦ": 5928,
      "èĹī": 5929,
      "åĮĨå¿Ļ": 5930,
      "åŀĭ": 5931,
      "where": 5932,
      "çļĦå²ģæľĪ": 5933,
      "èĬ±çĵ£": 5934,
      "èĭ¦æģ¼": 5935,
      "è§¦æĳ¸": 5936,
      "æĨ§æĨ¬": 5937,
      "ock": 5938,
      "æĺ¯éĤ£ä¹Ī": 5939,
      "éĵ¶æ²³": 5940,
      "æ¸ºå°ı": 5941,
      "ç»ĺ": 5942,
      "èĢĢçľ¼": 5943,
      "é³": 5944,
      "çļĦçģµéŃĤ": 5945,
      "å¯¹èĩªå·±": 5946,
      "æ¢¦è§ģ": 5947,
      "æĮĩå¼ķ": 5948,
      "æ¯«æĹł": 5949,
      "ä»¥ä¸ºä½ł": 5950,
      "æµ®æ²ī": 5951,
      "ç²¾ç¥ŀ": 5952,
      "èŃ¦": 5953,
      "Ġè®©ä½ł": 5954,
      "Ġåħ¶å®ŀ": 5955,
      "æĪĳç»Īäºİ": 5956,
      "èĲ½å¯ŀ": 5957,
      "Ġlive": 5958,
      "Ġä¸ĢåĪĩ": 5959,
      "ä¸įéĹ®": 5960,
      "æĺ¯ä¸ºäºĨ": 5961,
      "å¿ĥéĩĮçļĦ": 5962,
      "æĸŃèĤł": 5963,
      "äº¤éĶĻ": 5964,
      "çĪ±ä¸ĬäºĨ": 5965,
      "Øª": 5966,
      "åĽŀä¸įåİ»": 5967,
      "é£ŀæľº": 5968,
      "é£ĺéĽ¶": 5969,
      "Ġè¯·ä½ł": 5970,
      "åĳĴ": 5971,
      "æĢİåı¯": 5972,
      "å±ŀäºİæĪĳ": 5973,
      "åĳµæĬ¤": 5974,
      "éĥ½æĥ³": 5975,
      "è§ģåĪ°ä½ł": 5976,
      "è·¯éĢĶ": 5977,
      "åıĮåıĮ": 5978,
      "ç®¡ä»ĸ": 5979,
      "Ġèĩª": 5980,
      "çļĦèĦļæŃ¥": 5981,
      "åĴ³": 5982,
      "è·¯äºº": 5983,
      "çŁ¥éģĵæĪĳ": 5984,
      "æĻ´æľĹ": 5985,
      "ä¼ĹçĶŁ": 5986,
      "'d": 5987,
      "çļĦæī¿è¯º": 5988,
      "éĤ£çīĩ": 5989,
      "å·²æĺ¯": 5990,
      "æĮ£èĦ±": 5991,
      "Ġä¸ĸçķĮ": 5992,
      "åı¸": 5993,
      "äººå¿ĥ": 5994,
      "åĨĩ": 5995,
      "åĽŀåºĶ": 5996,
      "çĤ½": 5997,
      "æ»Ķ": 5998,
      "å°ĳäºĨ": 5999,
      "ä¼¼æ°´": 6000,
      "çħ§èĢĢ": 6001,
      "âĺĨ": 6002,
      "çļĦæľªæĿ¥": 6003,
      "å¯Ł": 6004,
      "æ¸Ķ": 6005,
      "é£İåĲ¹è¿ĩ": 6006,
      "æĪĳçļĦèĦ¸": 6007,
      "å¯ĴåĨ·": 6008,
      "æĮĳæĪĺ": 6009,
      "çĹĽçļĦ": 6010,
      "ç½©": 6011,
      "åĽĽå¤Ħ": 6012,
      "åĶ¯æľī": 6013,
      "æī¶": 6014,
      "ä¹Łåı¯ä»¥": 6015,
      "ä¸Ģä¸ªæ¢¦": 6016,
      "çŀĴ": 6017,
      "éĹªéĹª": 6018,
      "çļĦæľĭåıĭ": 6019,
      "éĽĢ": 6020,
      "ç³ķ": 6021,
      "åľ¨æĪĳèº«æĹģ": 6022,
      "è®Ĭ": 6023,
      "åīįéĢĶ": 6024,
      "æį±": 6025,
      "Ġä¸įå¿ħ": 6026,
      "åĩłåĪĨ": 6027,
      "è®¤è¾ĵ": 6028,
      "æľĿæľĿ": 6029,
      "èĥ¸æĢĢ": 6030,
      "æ³¼": 6031,
      "å¾Ĺå¥½": 6032,
      "è¡¡": 6033,
      "æĢİä¹Īèĥ½": 6034,
      "Ġleave": 6035,
      "ĠÐ": 6036,
      "æĪĳèµ°": 6037,
      "ä½łæĬĬ": 6038,
      "åĩłæĹ¶": 6039,
      "ä¸ĩè¯Ń": 6040,
      "èİº": 6041,
      "å´©æºĥ": 6042,
      "åıªæĺ¯æĪĳ": 6043,
      "è®©æĪĳçļĦ": 6044,
      "è°ģä¹Ł": 6045,
      "çľ¼çľ¸": 6046,
      "åĩºçļĦ": 6047,
      "èĦĤ": 6048,
      "è½¬è¿ĩ": 6049,
      "å°ıå§Ĳ": 6050,
      "èĮī": 6051,
      "ä¼łæĿ¥": 6052,
      "å¥ĶåĲĳ": 6053,
      "ĠåĲ¹": 6054,
      "äºĨèĩªå·±": 6055,
      "æīĽ": 6056,
      "åĩºçİ°åľ¨": 6057,
      "æµģè¡Į": 6058,
      "é¢Ŀ": 6059,
      "æĺ¥æĿ¥": 6060,
      "æ£ī": 6061,
      "å»¶ç»Ń": 6062,
      "Ġeverything": 6063,
      "éĢŀ": 6064,
      "é»¯": 6065,
      "ä¹Łè®¸æĺ¯": 6066,
      "åħ±æĪĳ": 6067,
      "çľĭè§ģä½ł": 6068,
      "çŁ³å¤´": 6069,
      "çļĦäºĭæĥħ": 6070,
      "æĻ®éĢļ": 6071,
      "13": 6072,
      "èĢģå¸Ī": 6073,
      "è¥Ł": 6074,
      "ä¸įæĦ¿æĦı": 6075,
      "åĪ°æĿ¥": 6076,
      "ä¼´éļı": 6077,
      "åĳĬè¯īèĩªå·±": 6078,
      "èĮīèİī": 6079,
      "ä¸Ģå¹ķ": 6080,
      "çķĻä¸ĭäºĨ": 6081,
      "çļĦèĩªå·±": 6082,
      "æĪĳå¤ª": 6083,
      "åģ¿": 6084,
      "å½ĵçĦ¶": 6085,
      "èįĨ": 6086,
      "Ġrun": 6087,
      "Ġåı¯ä»¥": 6088,
      "æĪĳè¿ĺåľ¨": 6089,
      "èĭįå¤©": 6090,
      "é»ĺé»ĺçļĦ": 6091,
      "ä¸įçĽ¸ä¿¡": 6092,
      "å¾Ĺå¤ļ": 6093,
      "è¸¢": 6094,
      "è°ĭ": 6095,
      "åı¯æĺ¯ä½ł": 6096,
      "Ġlook": 6097,
      "æ¸¸èį¡": 6098,
      "ba": 6099,
      "let": 6100,
      "æĹłè¸ª": 6101,
      "çľĭçł´": 6102,
      "è¶Ł": 6103,
      "æ±¡": 6104,
      "Ġç»ĻæĪĳ": 6105,
      "æ¢³": 6106,
      "èĢĮä½ł": 6107,
      "ä¸Ģåľºæ¢¦": 6108,
      "çļĦç¿ħèĨĢ": 6109,
      "æĪĳçĪ±çļĦ": 6110,
      "ä¸ºæĥħ": 6111,
      "Ġgoing": 6112,
      "æĮ«æĬĺ": 6113,
      "ï¼İ": 6114,
      "åıĺè¿ģ": 6115,
      "æĹ©æĻ¨": 6116,
      "å¿ĥéĩĮéĿ¢": 6117,
      "åĴ±ä»¬": 6118,
      "ä¸įå¿«ä¹Ĳ": 6119,
      "å¤©æĺİ": 6120,
      "è¡ĮæĿİ": 6121,
      "ä¸ĢæĹ¥": 6122,
      "åĴĮå¹³": 6123,
      "ç¥ŀè¯Ŀ": 6124,
      "æı¡ç´§": 6125,
      "é¢łåĢĴ": 6126,
      "ä½łçļĦå¾®ç¬ĳ": 6127,
      "æ³Ħ": 6128,
      "è®©ä»ĸ": 6129,
      "ä¸įçĪ±æĪĳ": 6130,
      "è¿ĻåĪ»": 6131,
      "çĻ½éĽª": 6132,
      "å¹²äºĨ": 6133,
      "éĻ¤éĿŀ": 6134,
      "Ġå¿ĺäºĨ": 6135,
      "æĪĳä»İ": 6136,
      "ä½łçľŁçļĦ": 6137,
      "åĲĦç§į": 6138,
      "è¸ıä¸Ĭ": 6139,
      "æ¡ĳçĶ°": 6140,
      "å°±è±¡": 6141,
      "Ġæ³ª": 6142,
      "çĶ¨å°½": 6143,
      "æ²³æµģ": 6144,
      "è¦ģæĢİä¹Ī": 6145,
      "ä¸ºçĿĢ": 6146,
      "æĪĳçļĦçĪ±æĥħ": 6147,
      "å¾Īè¿ľ": 6148,
      "å¾Īéļ¾": 6149,
      "éĹ¨åīį": 6150,
      "éļıé£İé£ĺ": 6151,
      "åįĥçĻ¾": 6152,
      "èģĨ": 6153,
      "çĽ®æłĩ": 6154,
      "æłĳä¸ĭ": 6155,
      "è¹īè·": 6156,
      "è¹īè·İ": 6157,
      "åıī": 6158,
      "è¿Ľåħ¥": 6159,
      "äººæ°ĳ": 6160,
      "å¾ĹæĪĳ": 6161,
      "çĤ®": 6162,
      "æįķ": 6163,
      "è½¬åĬ¨": 6164,
      "çĶĺæĥħæĦ¿": 6165,
      "Tell": 6166,
      "Ġå¤ļå°ĳ": 6167,
      "æŃĮæĽ²": 6168,
      "åĤ·": 6169,
      "åįģäºĮ": 6170,
      "åİ¢": 6171,
      "èµ°æĿ¥": 6172,
      "Ġdance": 6173,
      "è¿·äºº": 6174,
      "ç¢İäºĨ": 6175,
      "æ¾Ī": 6176,
      "ä½łä½ł": 6177,
      "åıªä¸ºä½ł": 6178,
      "èµ·å¤´": 6179,
      "ä¸¤é¢Ĺå¿ĥ": 6180,
      "å¿ĥæĦı": 6181,
      "ä¸ºéļ¾": 6182,
      "ãģ¡": 6183,
      "æīĵæī°": 6184,
      "åīįè·¯": 6185,
      "æ°´ä¸Ń": 6186,
      "æ¨±": 6187,
      "ä»¿ä¼¼": 6188,
      "åĲĳåīįèµ°": 6189,
      "gether": 6190,
      "ä½łæ²¡": 6191,
      "æī¾åĽŀ": 6192,
      "çħ®": 6193,
      "åĽºæī§": 6194,
      "çĽ¸è¿ŀ": 6195,
      "ç¾İéħĴ": 6196,
      "æĩµ": 6197,
      "Ġbea": 6198,
      "è¯¯ä¼ļ": 6199,
      "æĳĶ": 6200,
      "åģľåľ¨": 6201,
      "Ġhar": 6202,
      "çĬ¹åİŁ": 6203,
      "çĪ±ä¸Ģä¸ªäºº": 6204,
      "å±±æ°´": 6205,
      "æĮĤåľ¨": 6206,
      "äº¿": 6207,
      "å¿«æ´»": 6208,
      "é¢ĵ": 6209,
      "è¢«æĪĳ": 6210,
      "åĢĺ": 6211,
      "ç¾İæĻ¯": 6212,
      "èĭ¦çĹĽ": 6213,
      "Ġä¸įç®¡": 6214,
      "your": 6215,
      "è¦ģæĺ¯": 6216,
      "æĺİåªļ": 6217,
      "Ġlonely": 6218,
      "æĽ´æĶ¹": 6219,
      "éĹ¨åı£": 6220,
      "é»ĺé»ĺåľ°": 6221,
      "Ġshould": 6222,
      "Ġnothing": 6223,
      "ah": 6224,
      "Ġå¦Ĥæŀľ": 6225,
      "èĲ½çļĦ": 6226,
      "æºº": 6227,
      "just": 6228,
      "ä½łçļĦä¸ĸçķĮ": 6229,
      "å¸¦ä¸Ĭ": 6230,
      "è¡¨çĻ½": 6231,
      "æĹłå¿ĥ": 6232,
      "è°ģçŁ¥": 6233,
      "member": 6234,
      "æĹ§æ¢¦": 6235,
      "å¹¶ä¸įæĺ¯": 6236,
      "åĢ¾åĲ¬": 6237,
      "íķ": 6238,
      "çļĦçľ¼ç¥ŀ": 6239,
      "æĥ©": 6240,
      "æ¬§": 6241,
      "æīĢä»¥æĪĳ": 6242,
      "ç»ĥä¹ł": 6243,
      "çļĦå¯Ĥå¯ŀ": 6244,
      "çıĬ": 6245,
      "ä½łåľ¨åĵªéĩĮ": 6246,
      "Ġæµģ": 6247,
      "ä¸įçķĻ": 6248,
      "æīįèĥ½å¤Ł": 6249,
      "åĪ»æĦı": 6250,
      "æĿ¯éħĴ": 6251,
      "ä¸įç»ıæĦı": 6252,
      "ä¸įèĩª": 6253,
      "ä¸įçĶĺ": 6254,
      "ä¹ı": 6255,
      "åĩ¶": 6256,
      "éĺĳ": 6257,
      "æĶ¾æĿ¾": 6258,
      "æĺ¥åİ»": 6259,
      "æī¾ä¸Ģä¸ª": 6260,
      "æĸ°å¨ĺ": 6261,
      "åįģåħ«": 6262,
      "åįĳå¾®": 6263,
      "ä½łä¸įä¼ļ": 6264,
      "æŃª": 6265,
      "çģ¼": 6266,
      "Ġéĥ½æĺ¯": 6267,
      "æĮ¯": 6268,
      "åĬ¨åĲ¬": 6269,
      "åĭ¿": 6270,
      "éŁ³ç¬¦": 6271,
      "èĴ¸": 6272,
      "Ġå¹¸ç¦ı": 6273,
      "çļĦåľ°": 6274,
      "æĺ¯åĽłä¸º": 6275,
      "äººå®¶": 6276,
      "ç»ĻäºĨä½ł": 6277,
      "çģ«è½¦": 6278,
      "å©ī": 6279,
      "åľŁåľ°": 6280,
      "ity": 6281,
      "ä¸ľæĸ¹": 6282,
      "èįĴåĶĲ": 6283,
      "æ²¸èħ¾": 6284,
      "äººåĦ¿": 6285,
      "å¦»": 6286,
      "æĹłåħ³": 6287,
      "éģĵè·¯": 6288,
      "æİ¨å¼Ģ": 6289,
      "è¿ĻäºĽå¹´": 6290,
      "èĶļèĵĿ": 6291,
      "å°¤": 6292,
      "æ¼ª": 6293,
      "è´§": 6294,
      "åħ¨æĺ¯": 6295,
      "æĶ¶èĹı": 6296,
      "ft": 6297,
      "Ġaround": 6298,
      "éĿ¢åħ·": 6299,
      "è·³åĬ¨": 6300,
      "éĢģç»Ļä½ł": 6301,
      "ä»²": 6302,
      "ä¸Ģèµ·æĿ¥": 6303,
      "æĢİä¹ĪåĬŀ": 6304,
      "å¥ĭæĸĹ": 6305,
      "åĵĴåĵĴ": 6306,
      "æĩ¦å¼±": 6307,
      "Ð½": 6308,
      "ĠæĪĳçļĦå¿ĥ": 6309,
      "å°±æŃ¤": 6310,
      "å¯¹å¾ħ": 6311,
      "èĬ±èĬ±": 6312,
      "çķĻä¸įä½ı": 6313,
      "çĹĽæ¥ļ": 6314,
      "æĭ¥æĬ±ä½ł": 6315,
      "èĳĹæĪĳ": 6316,
      "ass": 6317,
      "ÙĨÙī": 6318,
      "ä¸įéĶĻ": 6319,
      "éĤ£æ®µ": 6320,
      "æĢĿéĩı": 6321,
      "åĺİ": 6322,
      "çļĦäººçĶŁ": 6323,
      "çķĻä¸ĭæĿ¥": 6324,
      "éĿĻéĿĻåľ°": 6325,
      "çµ®": 6326,
      "çĥĽåħī": 6327,
      "Ġ,": 6328,
      "Ġ~": 6329,
      "ĠåĶ±": 6330,
      "å¯¹éĶĻ": 6331,
      "çľŁè¯ļ": 6332,
      "æĮ¥éľį": 6333,
      "å¿½çķ¥": 6334,
      "å®īéĿĻçļĦ": 6335,
      "å¬ī": 6336,
      "è«": 6337,
      "åİ®": 6338,
      "å¦ĤåĲĮ": 6339,
      "å¦Ĥèĭ¥": 6340,
      "çŃĳ": 6341,
      "éļıä½ł": 6342,
      "èĶ·": 6343,
      "çľģ": 6344,
      "æ²«": 6345,
      "å¤±æİ§": 6346,
      "çģ«çĦ°": 6347,
      "çĥŃæģĭ": 6348,
      "çĿ¡è§ī": 6349,
      "ĠæĢ»æĺ¯": 6350,
      "æŀ·": 6351,
      "åīįè¡Į": 6352,
      "åıĳåħī": 6353,
      "æĲ¬": 6354,
      "ä½ĵè´´": 6355,
      "èİ«éĿŀ": 6356,
      "æĳĨèĦ±": 6357,
      "can": 6358,
      "Ġä¸Ģä¸ªäºº": 6359,
      "Ġåĵİ": 6360,
      "ä½łè¿ĺæĺ¯": 6361,
      "è¿ĻèĪ¬": 6362,
      "å¥½è±¡": 6363,
      "éĹªèº²": 6364,
      "æĶ¶èµ·": 6365,
      "Ġä»Ĭå¤©": 6366,
      "éĽ£": 6367,
      "éĽķ": 6368,
      "æŁ¥": 6369,
      "å®ĥçļĦ": 6370,
      "è°ģçŁ¥éģĵ": 6371,
      "ä¸Ģèµ·èµ°": 6372,
      "èĮ«çĦ¶": 6373,
      "èħ»": 6374,
      "è¿¢": 6375,
      "æ²Ī": 6376,
      "éļ¾åĪĨ": 6377,
      "åľ°èĢģå¤©èįĴ": 6378,
      "æĢ¯": 6379,
      "åĪ°çİ°åľ¨": 6380,
      "æľĢå¾Į": 6381,
      "äºİæĺ¯": 6382,
      "äºīåĲµ": 6383,
      "æ°¸æģĴçļĦ": 6384,
      "End": 6385,
      "æĪĳæĺ¯ä½ł": 6386,
      "Ġå¿«ä¹Ĳ": 6387,
      "è¿Ļçīĩ": 6388,
      "æ¸Ĭ": 6389,
      "çĶŁçļĦ": 6390,
      "æĹ¶éĹ´çļĦ": 6391,
      "çĶ·åĦ¿": 6392,
      "æĳĩæĽ³": 6393,
      "èĦļåį°": 6394,
      "æı¡ä½ı": 6395,
      "æ¢ŃåĵĪ": 6396,
      "Ġæīĵ": 6397,
      "ä½łç»ĻæĪĳ": 6398,
      "ç¾İäºº": 6399,
      "åĪĨåĪ«": 6400,
      "çĸĹ": 6401,
      "aybe": 6402,
      "éĢĹçķĻ": 6403,
      "çļĦåŃ£èĬĤ": 6404,
      "æĪĳæĪĳ": 6405,
      "æĪĳæĢ»æĺ¯": 6406,
      "è°Ľ": 6407,
      "åģļæ¢¦": 6408,
      "ite": 6409,
      "ä¹ľ": 6410,
      "å¤ªæ·±": 6411,
      "ä¿ı": 6412,
      "ĠæĪĳä¹Ł": 6413,
      "è´«": 6414,
      "éľ¾": 6415,
      "ä½łè¯´çļĦ": 6416,
      "åł¤": 6417,
      "å°±åĥıæĺ¯": 6418,
      "ING": 6419,
      "ĠåİŁæĿ¥": 6420,
      "æĪĳå¤ļæĥ³": 6421,
      "æĥ¶": 6422,
      "ãģĭãĤī": 6423,
      "åĶ·": 6424,
      "èĲ¦": 6425,
      "çķĻç»ĻæĪĳ": 6426,
      "æľĪä¸ĭ": 6427,
      "æŃ¥ä¼Ĳ": 6428,
      "Ġ.": 6429,
      "åį¿": 6430,
      "åı¯æĢķ": 6431,
      "ĠæĪĳçĪ±ä½ł": 6432,
      "é£ŀåİ»": 6433,
      "å¥½æĥ³ä½ł": 6434,
      "èĩªå°Ĭ": 6435,
      "èµ·çĤ¹": 6436,
      "èĪĮ": 6437,
      "âĢķ": 6438,
      "ä¸ĢçĤ¹ä¸ĢçĤ¹": 6439,
      "åħ¨éĥ¨éĥ½": 6440,
      "è¶ħè¶Ĭ": 6441,
      "Ġèĭ¥": 6442,
      "è¢«äºº": 6443,
      "å°Ĩä¼ļ": 6444,
      "ä½ľä¼´": 6445,
      "çīµä½łçļĦæīĭ": 6446,
      "æľĢåĲİä¸Ģæ¬¡": 6447,
      "è¶³è¿¹": 6448,
      "æŁĲå¤©": 6449,
      "ä¸Ģæĥ³": 6450,
      "è¿ĺæĺ¯ä½ł": 6451,
      "åĴĮä»ĸ": 6452,
      "æĪĲç©º": 6453,
      "ç¥ŀç»ı": 6454,
      "çİ©ç¬ĳ": 6455,
      "æķĪ": 6456,
      "ä¸ĸäºº": 6457,
      "è·Łä»ĸ": 6458,
      "éªļ": 6459,
      "åĽŀå¿ĨéĩĮ": 6460,
      "éĿĴæĺ¥çļĦ": 6461,
      "ĠæĦ¿": 6462,
      "Ġæį¢": 6463,
      "anc": 6464,
      "çĬ¯éĶĻ": 6465,
      "æ¸©åŃĺ": 6466,
      "Ġdid": 6467,
      "æ²īæ²¦": 6468,
      "æ»ļæ»ļ": 6469,
      "æħĮå¼ł": 6470,
      "å±Ĥå±Ĥ": 6471,
      "åĵĢæĦģ": 6472,
      "åŃ¦ä¼ļäºĨ": 6473,
      "ä½łçļĦçľ¼ç¥ŀ": 6474,
      "ous": 6475,
      "èĭ¹": 6476,
      "å°ĳå¥³": 6477,
      "æĭ¥æľīä½ł": 6478,
      "æİĮå£°": 6479,
      "è§Ĥä¸ĸ": 6480,
      "eop": 6481,
      "ny": 6482,
      "åĪ°åĵªéĩĮ": 6483,
      "ä¾¯": 6484,
      "æĥ³èµ·æĪĳ": 6485,
      "ep": 6486,
      "å¥½æľĭåıĭ": 6487,
      "ä¸ĭæ¬¡": 6488,
      "ĠæĪĳä¸į": 6489,
      "å±±ä¸Ĭ": 6490,
      "åĽĽæµ·": 6491,
      "Ġbetter": 6492,
      "10": 6493,
      "æľīçĿĢ": 6494,
      "åİ»è¿½": 6495,
      "æ»¥": 6496,
      "è¡£æľį": 6497,
      "Ġéĺ¿": 6498,
      "å¾Ĺä½ł": 6499,
      "æ»¡å±±": 6500,
      "ä¿¡ä»»": 6501,
      "ä¼¼æĺ¯": 6502,
      "åı«ä½ł": 6503,
      "å¿ĺäºĨæĪĳ": 6504,
      "å¿ĥå·²": 6505,
      "è¿ĺæ²¡æľī": 6506,
      "èµ°çĿĢ": 6507,
      "çĽ¸äºĴ": 6508,
      "çľ¼çľĭ": 6509,
      "åĸĺ": 6510,
      "ĠæĪĳæĺ¯": 6511,
      "çºµä½¿": 6512,
      "ä¸ģ": 6513,
      "å¿ĥåĦ¿": 6514,
      "Ġdi": 6515,
      "è®¸ä¸ĭ": 6516,
      "åŁĭèĳ¬": 6517,
      "æ¶Łæ¼ª": 6518,
      "lease": 6519,
      "ä¸įè®©": 6520,
      "è§ģè¯ģ": 6521,
      "çĻ«": 6522,
      "å¯ĤéĿĻ": 6523,
      "åħ¥æ¢¦": 6524,
      "eat": 6525,
      "ä¸įåľ¨æĦı": 6526,
      "ç®ĢåįķçļĦ": 6527,
      "é¬ĵ": 6528,
      "ç¹ģæĺŁ": 6529,
      "èĭ¹æŀľ": 6530,
      "Ġê": 6531,
      "æķı": 6532,
      "æł·çļĦ": 6533,
      "Ġcrazy": 6534,
      "ä¸»å®°": 6535,
      "ï½ŀï½ŀï½ŀ": 6536,
      "anna": 6537,
      "é»ĳèī²": 6538,
      "ä¸įåıĺçļĦ": 6539,
      "æļ´éĽ¨": 6540,
      "æĥ©ç½ļ": 6541,
      "è§Ĥä¸ĸéŁ³": 6542,
      "çľŁæĮļ": 6543,
      "æĪĲåıĮ": 6544,
      "Ġgone": 6545,
      "å½©äºĳ": 6546,
      "å´İ": 6547,
      "çİĭåŃĲ": 6548,
      "eople": 6549,
      "ÚŃ": 6550,
      "ĠçĪ±çļĦ": 6551,
      "Ġå¦Ĥä½ķ": 6552,
      "ä¸įåĬ¨": 6553,
      "çĪ±å¿ĥ": 6554,
      "çĽ¸ä¼ļ": 6555,
      "ä»Ĭå¹´": 6556,
      "å¥ĩå¦Ļ": 6557,
      "ä¸ĵè¾ĳ": 6558,
      "éĺ²å¤ĩ": 6559,
      "åĺŁåĺŁ": 6560,
      "IG": 6561,
      "ms": 6562,
      "æ·Ģ": 6563,
      "éĶ®": 6564,
      "çĲĨè§£": 6565,
      "è®¿": 6566,
      "å°±èµ°": 6567,
      "åĺĺ": 6568,
      "åįģäºĶ": 6569,
      "ç¬¬äºĮ": 6570,
      "èĭįèĮ«": 6571,
      "ä¸¢æİī": 6572,
      "æĳ§æ¯ģ": 6573,
      "å¤¹": 6574,
      "æĿľ": 6575,
      "æĪĳçļĦçľ¼æ³ª": 6576,
      "ä½łçļĦåĲįåŃĹ": 6577,
      "çķ¶": 6578,
      "å¯¹æīĭ": 6579,
      "æİĢ": 6580,
      "å¨¶": 6581,
      "éĻĮçĶŁäºº": 6582,
      "Ñĭ": 6583,
      "ä¸įå¿ĺ": 6584,
      "æĥ³è¯´": 6585,
      "æķŀ": 6586,
      "ç®Ĺä»Ģä¹Ī": 6587,
      "ä½ıåľ¨": 6588,
      "çļĦäººåĦ¿": 6589,
      "çĥŁéĽ¨": 6590,
      "çº¯çľŁ": 6591,
      "æ¼Ĥæµģ": 6592,
      "é»ĳæļĹä¸Ń": 6593,
      "å®ĮäºĨ": 6594,
      "åŁİåł¡": 6595,
      "every": 6596,
      "æĪĳåıªæľī": 6597,
      "ä¸ĢæĹ¶": 6598,
      "ä¹ĭå¤ĸ": 6599,
      "æİīçľ¼æ³ª": 6600,
      "çīµçĿĢæīĭ": 6601,
      "Ġä¸ĢçĽ´": 6602,
      "çĿĢäºĨ": 6603,
      "è¯´çĪ±": 6604,
      "ä½łçļĦæĹ¶åĢĻ": 6605,
      "è¿ĺæĺ¯æĪĳ": 6606,
      "æ¯ıæĻļ": 6607,
      "æ¯ıå¤©éĥ½": 6608,
      "åı®åı®": 6609,
      "ĠæĹłæ³ķ": 6610,
      "ä½łçİ°åľ¨": 6611,
      "æľīæĥħäºº": 6612,
      "æĪĳçļĦæĥħ": 6613,
      "å¼ĢèĬ±": 6614,
      "æĺ¥ç§ĭ": 6615,
      "ä¸ºèĩªå·±": 6616,
      "æĪĳä»¬è¦ģ": 6617,
      "åŃ¦çĿĢ": 6618,
      "èĻļåģĩ": 6619,
      "è¨ĺ": 6620,
      "æ±ªæ±ª": 6621,
      "Ah": 6622,
      "æĹ·": 6623,
      "åİī": 6624,
      "ä½łçļĦäºº": 6625,
      "å¯Ĥå¯¥": 6626,
      "éĴŁå£°": 6627,
      "ä¸ĢåĲ»": 6628,
      "å¦Ĥæ°´": 6629,
      "èµ°éģį": 6630,
      "çľŁå¿ĥçļĦ": 6631,
      "æ±½": 6632,
      "èĢģäºĨ": 6633,
      "å®³ç¾ŀ": 6634,
      "è¯ķè¿ĩ": 6635,
      "çľīå¤´": 6636,
      "åĳĲåĸĬ": 6637,
      "Ġåıªè¦ģ": 6638,
      "ä¸įè¯Ń": 6639,
      "åį§": 6640,
      "éĥ½æ²¡": 6641,
      "å¿«çĤ¹": 6642,
      "åīįç¨ĭ": 6643,
      "çĪ±ä»ĸ": 6644,
      "Ġturn": 6645,
      "å¸Ĳ": 6646,
      "æ³ªåħī": 6647,
      "æīįçŁ¥": 6648,
      "ä¸īåįĥ": 6649,
      "Ġkiss": 6650,
      "éļĲéļĲ": 6651,
      "ĠNo": 6652,
      "æĲºæīĭ": 6653,
      "ä½łåĪ°åºķ": 6654,
      "å£¶": 6655,
      "æĬļæĳ¸": 6656,
      "ãģĺ": 6657,
      "æŁ´": 6658,
      "ç¿±": 6659,
      "éĻįä¸´": 6660,
      "çĶļèĩ³": 6661,
      "æĪĳå¼Ģå§ĭ": 6662,
      "ä¸ºä»ĸ": 6663,
      "ä»İå®¹": 6664,
      "å¾Īç¾İ": 6665,
      "æĳĬ": 6666,
      "åı£è¢ĭ": 6667,
      "è§ĦåĪĻ": 6668,
      "Ġä¸įæĺ¯": 6669,
      "æº¢": 6670,
      "åŁĭèĹı": 6671,
      "Where": 6672,
      "ĠåĪ«åĨį": 6673,
      "éĤ£æĹ¶åĢĻ": 6674,
      "ä¸¤äºº": 6675,
      "ĠDa": 6676,
      "æİ©çĽĸ": 6677,
      "Ġgotta": 6678,
      "åĩ°": 6679,
      "çŃīä¸įåĪ°": 6680,
      "ä»Ģä¹Īæĺ¯": 6681,
      "æĤĶæģ¨": 6682,
      "ation": 6683,
      "æ³¨æĦı": 6684,
      "ä¸Ŀä¸Ŀ": 6685,
      "ä¸ĢåĪĨéĴŁ": 6686,
      "æĹłè·¯": 6687,
      "æĽ¿ä»£": 6688,
      "æĭľæĭľ": 6689,
      "æĲģæµħ": 6690,
      "when": 6691,
      "çļĦåŃ©åŃĲ": 6692,
      "åĪł": 6693,
      "å¤ļä¸ĢçĤ¹": 6694,
      "ä¸ĸçķĮéĩĮ": 6695,
      "åįĪåĲİ": 6696,
      "æ»ĳèĲ½": 6697,
      "å¾Ģåīįèµ°": 6698,
      "æĹłæĢ¨æĹłæĤĶ": 6699,
      "åĨįåº¦": 6700,
      "æ®¿": 6701,
      "Ġstart": 6702,
      "æ¶Īå¤±åľ¨": 6703,
      "æĪĳç«Ļåľ¨": 6704,
      "ä¸Ģæĸ¹": 6705,
      "æľīäºĨä½ł": 6706,
      "åĪ°è¾¾": 6707,
      "oul": 6708,
      "æŃ¤æĹ¶": 6709,
      "Ġthem": 6710,
      "Ġfeeling": 6711,
      "å¯Ħæīĺ": 6712,
      "è©±": 6713,
      "æĬ±æĭ¥": 6714,
      "æ£ĺ": 6715,
      "Ġhad": 6716,
      "IC": 6717,
      "Ġmine": 6718,
      "çĽ¸ä¿¡æĪĳ": 6719,
      "æĳĩæĻĥ": 6720,
      "æĪĳçļĦçĪ±äºº": 6721,
      "æ·¡æ·¡çļĦ": 6722,
      "è·ª": 6723,
      "æģ³": 6724,
      "ä½łä¼ļä¸įä¼ļ": 6725,
      "çĺ¾": 6726,
      "çĽ²çĽ®": 6727,
      "æĿ°": 6728,
      "åħģ": 6729,
      "é£İæµģ": 6730,
      "æµģä¸ĭ": 6731,
      "æŃĮè¯į": 6732,
      "æ¼©": 6733,
      "é¡ĺ": 6734,
      "ä¸īä¸ª": 6735,
      "èĪŀæŃ¥": 6736,
      "ï¼ģï¼ģ": 6737,
      "æĦŁæĥħçļĦ": 6738,
      "åİĭåĬĽ": 6739,
      "lo": 6740,
      "å¤ľåįĬ": 6741,
      "èĲ¤": 6742,
      "çº¢çļĦ": 6743,
      "ä½ıæĪĳ": 6744,
      "åģľä¸ĭ": 6745,
      "ä¼¼ä¹İ": 6746,
      "é©¾": 6747,
      "åıįèĢĮ": 6748,
      "æĺ¯è°ģåľ¨": 6749,
      "BABY": 6750,
      "Ġ*": 6751,
      "çļĦçŀ¬éĹ´": 6752,
      "çľº": 6753,
      "é£İæ²Ļ": 6754,
      "æ´»å¾Ĺ": 6755,
      "é»Ħæ²³": 6756,
      "æľīä½łåľ¨": 6757,
      "éļĶçĿĢ": 6758,
      "æľīéĴ±": 6759,
      "äºĨå¤ļå°ĳ": 6760,
      "åħīè¾ī": 6761,
      "ç»Ļèĩªå·±": 6762,
      "æĶ¾ä»»": 6763,
      "ä½Ĩä½ł": 6764,
      "çĽ´æİ¥": 6765,
      "èĮĥ": 6766,
      "ä¸ºäºĨè°ģ": 6767,
      "å¡ĺ": 6768,
      "ä»İæĿ¥æ²¡": 6769,
      "èıĬ": 6770,
      "æļ®æļ®": 6771,
      "ange": 6772,
      "å¥½æ¯Ķ": 6773,
      "æ¯ĭ": 6774,
      "åį´ä¸į": 6775,
      "çĶŁåĳ½éĩĮ": 6776,
      "åĨ¬åŃ£": 6777,
      "æķ´ä¸ªä¸ĸçķĮ": 6778,
      "da": 6779,
      "ä½łæĺ¯è°ģ": 6780,
      "æĿ¥æĿ¥æĿ¥": 6781,
      "èººåľ¨": 6782,
      "Ġä¸ºä»Ģä¹Ī": 6783,
      "ä½ķæĹ¥": 6784,
      "æ¬¢æ¬£": 6785,
      "èĬĤæĭį": 6786,
      "Ġåķ¦": 6787,
      "åľ¨æĪĳçļĦå¿ĥ": 6788,
      "ãģĬ": 6789,
      "çĻ½èī²": 6790,
      "æŃ¤æĥħ": 6791,
      "Ġä¸įçŁ¥": 6792,
      "èĦĳè¢ĭ": 6793,
      "ä½łå°±æĺ¯æĪĳ": 6794,
      "ç¯®": 6795,
      "éŀŃ": 6796,
      "ä»Ķç»Ĩ": 6797,
      "ç¿±ç¿Ķ": 6798,
      "She": 6799,
      "çĢ": 6800,
      "å°¬": 6801,
      "éĺ¶": 6802,
      "æµ·æµª": 6803,
      "åıĭè°Ĭ": 6804,
      "çļĦå¤©åłĤ": 6805,
      "ç»Łç»Ł": 6806,
      "åº¸": 6807,
      "çľŁåģĩ": 6808,
      "ä½ķå¦¨": 6809,
      "èľĤ": 6810,
      "æķ£æŃ¥": 6811,
      "ä¸¤ä¸ªäººçļĦ": 6812,
      "æ´ĭæ´ĭ": 6813,
      "éĸĵ": 6814,
      "èµ¤è£¸": 6815,
      "èģĨåĲ¬": 6816,
      "ä¸ĢçĻ¾": 6817,
      "å¥¹è¯´": 6818,
      "åĽŀå¿ĨçļĦ": 6819,
      "ä¸Ģæ¬¡æ¬¡": 6820,
      "çļĦä¸ľè¥¿": 6821,
      "è®©éĤ£": 6822,
      "åĲĳçĿĢ": 6823,
      "ç»Īæĸ¼": 6824,
      "ä¸¾èµ·": 6825,
      "è¿°": 6826,
      "æĹłè¯Ń": 6827,
      "ä¸Ģä¸ªä½ł": 6828,
      "Ġma": 6829,
      "æľĪçļĦ": 6830,
      "Ġgu": 6831,
      "åĺ²ç¬ĳ": 6832,
      "Ġæħ¢æħ¢": 6833,
      "ä¸įæķ£": 6834,
      "äººæ½®": 6835,
      "ä¼ļæĺ¯": 6836,
      "åıªæĢª": 6837,
      "åĶ±èµ·": 6838,
      "ãĥ»": 6839,
      "å¹½å¹½": 6840,
      "èİ²èĬ±": 6841,
      "Ġsaid": 6842,
      "çļĦåĳ³éģĵ": 6843,
      "åıªçķĻä¸ĭ": 6844,
      "ç¬ĳç¬ĳ": 6845,
      "æ¸ħæ¾Ī": 6846,
      "æ¬¢åĳ¼": 6847,
      "é£ĺæķ£": 6848,
      "ä¸ĩçī©": 6849,
      "è§¦ç¢°": 6850,
      "ãĢį": 6851,
      "çĥŃåĲ»": 6852,
      "ä¸Ģå¤©ä¸Ģå¤©": 6853,
      "ä½łåı¯çŁ¥éģĵ": 6854,
      "æŀ·éĶģ": 6855,
      "è¿ĺæĥ³": 6856,
      "çĽ¸äº²": 6857,
      "ä»¥ä¸ºæĪĳ": 6858,
      "åį´æ²¡æľī": 6859,
      "è¯·ä½łä¸įè¦ģ": 6860,
      "oodbye": 6861,
      "ild": 6862,
      "æŀĦ": 6863,
      "æĦŁåºĶ": 6864,
      "çĭ±": 6865,
      "æµģè¿ŀ": 6866,
      "Ġcon": 6867,
      "èģ²": 6868,
      "ä¸¢äºĨ": 6869,
      "æĪĳåĲ¬": 6870,
      "éĤ£æĺ¯æĪĳ": 6871,
      "æĹłçŁ¥": 6872,
      "ç¾ģ": 6873,
      "èºģ": 6874,
      "ä»İæ²¡æľī": 6875,
      "èĲ½æ³ª": 6876,
      "æ¸ħæ¸ħ": 6877,
      "ç®ĹäºĨåĲ§": 6878,
      "èĢģå¤©": 6879,
      "çļĦäººä»¬": 6880,
      "è¯Ĺç¯ĩ": 6881,
      "çĤ¹çĤ¹æ»´æ»´": 6882,
      "éłŃ": 6883,
      "çĪ±è¦ģ": 6884,
      "æĪĳçļĦæĢĿå¿µ": 6885,
      "Ġah": 6886,
      "è¢ħ": 6887,
      "çĶ¨çĪ±": 6888,
      "åĬ¨äººçļĦ": 6889,
      "éĹ®èĩªå·±": 6890,
      "å¿ĺäºĨåĲ§": 6891,
      "Ġen": 6892,
      "è¯ļå®ŀ": 6893,
      "æĤĦæĤĦçļĦ": 6894,
      "em": 6895,
      "æľ±": 6896,
      "ä¸Ģç¼ķ": 6897,
      "èĬľ": 6898,
      "æĽĻ": 6899,
      "æ¯ıç§Ĵ": 6900,
      "æ»¡æ»¡": 6901,
      "æĻļé¤Ĳ": 6902,
      "ĠCh": 6903,
      "Ġplay": 6904,
      "ĠçĹĽ": 6905,
      "çļĦç»ĵæŀľ": 6906,
      "ä¸įåĪĨ": 6907,
      "ãĢĮ": 6908,
      "åįĥåı¤": 6909,
      "ç²Ĺ": 6910,
      "è®°å¿Ĩä¸Ń": 6911,
      "éĢĲæ¸Ĳ": 6912,
      "ä»ĬçĶŁä»Ĭä¸ĸ": 6913,
      "å¥¢æľĽ": 6914,
      "Ġface": 6915,
      "right": 6916,
      "æĥ³å¤ªå¤ļ": 6917,
      "ç»Ļä»ĸ": 6918,
      "å¿ĺä¸įæİī": 6919,
      "æµ·éĺĶ": 6920,
      "é©»": 6921,
      "ĠNa": 6922,
      "ä»ĭæĦı": 6923,
      "what": 6924,
      "æĺ¯æĪĳä»¬": 6925,
      "åħĳ": 6926,
      "æĹłä»İ": 6927,
      "çĸ¯äºĨ": 6928,
      "çļĦæĥħç»ª": 6929,
      "ä¼¸æīĭ": 6930,
      "ĠåĲĮ": 6931,
      "ĠæĹ¶éĹ´": 6932,
      "ä¸ĢæĹł": 6933,
      "éĥ½åı¯ä»¥": 6934,
      "çģ¾": 6935,
      "èĬ±è°¢": 6936,
      "ä¼¤éĢı": 6937,
      "èİİ": 6938,
      "çĮª": 6939,
      "ä½įç½®": 6940,
      "æĿŁç¼ļ": 6941,
      "Ġreal": 6942,
      "Ġéķ¿": 6943,
      "æĿ¥ä¸ĸ": 6944,
      "å¤ļä½Ļ": 6945,
      "ãģ°": 6946,
      "æĮ¨": 6947,
      "è½»å£°": 6948,
      "æĪĳçļĦå¿ĥæĥħ": 6949,
      "éĨĴäºĨ": 6950,
      "å·ħ": 6951,
      "åĽŀèį¡": 6952,
      "çĤĬ": 6953,
      "éľĦ": 6954,
      "ä¸įè¯´è¯Ŀ": 6955,
      "å¾Ĳ": 6956,
      "è®Ń": 6957,
      "èĭĹ": 6958,
      "è¡ĮåĽĬ": 6959,
      "è§Ĥä¼Ĺ": 6960,
      "Ġå°±åĥı": 6961,
      "æĹ¥æĹ¥å¤ľ": 6962,
      "æ°¸è¿ľæ°¸è¿ľ": 6963,
      "åĵªåĦ¿": 6964,
      "è§£å¼Ģ": 6965,
      "æķ£èĲ½": 6966,
      "å§Ĳå¦¹": 6967,
      "æ¯ķç«Ł": 6968,
      "Ba": 6969,
      "ä¸Ģçº¿": 6970,
      "æĺİçŁ¥éģĵ": 6971,
      "æľĪåľĨ": 6972,
      "æĢ»æľīä¸Ģå¤©": 6973,
      "çº¢èī²": 6974,
      "é«ĺæŃĮ": 6975,
      "åĵŃçĿĢ": 6976,
      "æ²īè¿·": 6977,
      "æĢĢå¿µä½ł": 6978,
      "ä¸įåĽŀæĿ¥": 6979,
      "äººç±»": 6980,
      "æµ´": 6981,
      "åĪĨç§Ĵ": 6982,
      "è¯¥ä¸įè¯¥": 6983,
      "å¿ĺäºĨä½ł": 6984,
      "è´Łæĭħ": 6985,
      "èĶ·èĸĩ": 6986,
      "Ġä»»": 6987,
      "ä½łæīĭ": 6988,
      "hey": 6989,
      "ä»Ģéº¼": 6990,
      "Ġaf": 6991,
      "å°ıé¸Ł": 6992,
      "Ġæ¯Ķ": 6993,
      "ä¼¦": 6994,
      "æĿ¥å¾Ĺ": 6995,
      "æľĢçĪ±çļĦäºº": 6996,
      "ä»įæĺ¯": 6997,
      "ick": 6998,
      "åĽ¢åľĨ": 6999,
      "Ġsweet": 7000,
      "``": 7001,
      "ä½ĳ": 7002,
      "åį¦": 7003,
      "è¯´çĪ±æĪĳ": 7004,
      "è¡Ĺè§Ĵ": 7005,
      "åı°åĮĹ": 7006,
      "éŃĶåĬĽ": 7007,
      "çĴĢ": 7008,
      "fore": 7009,
      "per": 7010,
      "ĠéĽ¨": 7011,
      "çĿ¬": 7012,
      "åĨįæ²¡æľī": 7013,
      "éģĵåĪ«": 7014,
      "ä¿±": 7015,
      "é¡¹": 7016,
      "ç½ķ": 7017,
      "åıįåºĶ": 7018,
      "æ¯ıä¸ªäººéĥ½": 7019,
      "æĸĳé©³": 7020,
      "æĺ¥å¤ıç§ĭåĨ¬": 7021,
      "Ġå¯Ĥå¯ŀ": 7022,
      "å°±è¯¥": 7023,
      "è¯´æĺİ": 7024,
      "ä½łçļĦçľ¼": 7025,
      "æĸŁ": 7026,
      "åĶı": 7027,
      "æľĽè§ģ": 7028,
      "æ³ªçĹķ": 7029,
      "æĪĳä¸įçŁ¥": 7030,
      "åĩłåĽŀ": 7031,
      "æķ£åıĳ": 7032,
      "éĵľ": 7033,
      "ç©¿ä¸Ĭ": 7034,
      "æĺ¯è°ģçļĦ": 7035,
      "æ¹ĸæ°´": 7036,
      "éŃħåĬĽ": 7037,
      "æ¼©æ¶¡": 7038,
      "éŃĶé¬¼": 7039,
      "éĢŀå¼º": 7040,
      "çľŁæĦı": 7041,
      "æĢİä¹Īè¯´": 7042,
      "æ²īæ·Ģ": 7043,
      "æŃ»åİ»": 7044,
      "å¹»è§ī": 7045,
      "å¥¢æ±Ĥ": 7046,
      "ĠæīĢä»¥": 7047,
      "ä¸įåºĶ": 7048,
      "æĥħä¾£": 7049,
      "ä¹Łä¸įæĺ¯": 7050,
      "çĶŁçĶŁ": 7051,
      "çĽ¸åģİ": 7052,
      "åĳ½ä¸Ń": 7053,
      "å¹²èĦĨ": 7054,
      "åĺ´å·´": 7055,
      "å¡«æ»¡": 7056,
      "å¦¥åįı": 7057,
      "éĩĮæľī": 7058,
      "é»ŀ": 7059,
      "åĲ¬æĪĳè¯´": 7060,
      "æĪĳä¸įæĩĤ": 7061,
      "è£¤": 7062,
      "åĨ°åĨ°": 7063,
      "éĻªä¼´æĪĳ": 7064,
      "é¼ĵåĬ±": 7065,
      "Get": 7066,
      "One": 7067,
      "éĤ£ä¸ĢåĪ»": 7068,
      "çĽ¾": 7069,
      "ä¸Ńå¤®": 7070,
      "è¡°": 7071,
      "æĬ±æĢ¨": 7072,
      "å¥³çĶŁ": 7073,
      "èĭ¥æľī": 7074,
      "Ġthings": 7075,
      "æĪĳä¹Łä¼ļ": 7076,
      "çĲ´å¼¦": 7077,
      "Ġbeautiful": 7078,
      "åķ¤": 7079,
      "å¤ľæĿ¥": 7080,
      "ç«ŀ": 7081,
      "éľĢè¦ģä½ł": 7082,
      "æµªæ¼«çļĦ": 7083,
      "åĪ¶éĢł": 7084,
      "éĢŁåº¦": 7085,
      "å´ĩæĭľ": 7086,
      "Ġæ·±": 7087,
      "ä½łæ²¡æľī": 7088,
      "æĽ¼": 7089,
      "é£İçļĦ": 7090,
      "æ°¸è¿ľä¸įä¼ļ": 7091,
      "æįŁ": 7092,
      "åįĵ": 7093,
      "å°±åĪ«": 7094,
      "æµģå¹´": 7095,
      "äº²äºº": 7096,
      "æĪĺåľº": 7097,
      "ç¦»å¼ĢäºĨ": 7098,
      "ç»Ļä½łåĲ¬": 7099,
      "é±¼åĦ¿": 7100,
      "ä¸ĺ": 7101,
      "çļĦéĺ³åħī": 7102,
      "çļĦæľĪäº®": 7103,
      "ä¼ĳæģ¯": 7104,
      "Ġéļı": 7105,
      "çļĦæĺŁ": 7106,
      "æĭ¯": 7107,
      "æµģéĢĿ": 7108,
      "åįĹæĸ¹": 7109,
      "ä¸ĢåĿĹ": 7110,
      "æĹłèĥ½": 7111,
      "Ġwh": 7112,
      "å®ļæł¼": 7113,
      "ä½łè¯´è¿ĩ": 7114,
      "ä¸ºäºĨä»Ģä¹Ī": 7115,
      "èļģ": 7116,
      "æĪĳçŁ¥": 7117,
      "æĥļ": 7118,
      "åħļ": 7119,
      "å°±åı¯ä»¥": 7120,
      "å°±è¿Ļä¹Ī": 7121,
      "çĶŁéķ¿": 7122,
      "æĪĳæĺ¯çľŁçļĦ": 7123,
      "åŃ¦ä¸įä¼ļ": 7124,
      "ç¨į": 7125,
      "æ£ĭ": 7126,
      "èĭįçĻ½": 7127,
      "çļĦå¥³äºº": 7128,
      "çļĦåĬĽéĩı": 7129,
      "ä½łåĳĢ": 7130,
      "çŃ¾": 7131,
      "ç§ĳ": 7132,
      "è´º": 7133,
      "çĹ´è¿·": 7134,
      "è¿Ļä»½çĪ±": 7135,
      "ollow": 7136,
      "ãĦŁ": 7137,
      "èµĦæł¼": 7138,
      "æĹ¥æĹ¥å¤ľå¤ľ": 7139,
      "æĪĳåĲ§": 7140,
      "æĪĳåºĶè¯¥": 7141,
      "å¤©çľŁçļĦ": 7142,
      "æłĸ": 7143,
      "åĩłåº¦": 7144,
      "æĭ¥æĬ±çĿĢ": 7145,
      "åŁİå¸ĤçļĦ": 7146,
      "çµ¦": 7147,
      "ç¶ĵ": 7148,
      "Ø³": 7149,
      "æĪĳçİ°åľ¨": 7150,
      "æĥ³åİ»": 7151,
      "æĥħéļ¾": 7152,
      "ä¾ł": 7153,
      "åħĪçĶŁ": 7154,
      "æĵ¦å¹²": 7155,
      "æĬ¬èµ·å¤´": 7156,
      "åĲĬ": 7157,
      "Ġwo": 7158,
      "éĽ¨éĩĮ": 7159,
      "æĽĻåħī": 7160,
      "ĠéĤ£ä¹Ī": 7161,
      "çļĦèįīåİŁ": 7162,
      "ä¸įæģ¯": 7163,
      "æĺ¯éĶĻ": 7164,
      "éĥ½æĺ¯æĪĳ": 7165,
      "åĴĮè°ģ": 7166,
      "å½ĵæĪĲ": 7167,
      "æ¶¨": 7168,
      "èĻĶ": 7169,
      "æĪĳä¸įæķ¢": 7170,
      "æīĵç®Ĺ": 7171,
      "å¤ļå°ĳçļĦ": 7172,
      "åħ¶ä¸Ń": 7173,
      "æĪĳä¸ĢçĶŁ": 7174,
      "å¿ĥçĶĺæĥħæĦ¿": 7175,
      "åĸľæĢĴ": 7176,
      "å²ĸ": 7177,
      "å¸®ä½ł": 7178,
      "æĪĳçĭ¬èĩª": 7179,
      "ä»ģ": 7180,
      "æºī": 7181,
      "æĹģäºº": 7182,
      "çİ«çĳ°èĬ±": 7183,
      "å¤©èįĴåľ°èĢģ": 7184,
      "ï¼įï¼į": 7185,
      "Ġä¸ī": 7186,
      "è¿Ļåĳ¢": 7187,
      "å¥½è¿Ĳ": 7188,
      "åıĹäºĨ": 7189,
      "å¤ŁäºĨ": 7190,
      "è¡Ĺçģ¯": 7191,
      "&#": 7192,
      "æľĽçĿĢä½ł": 7193,
      "çļĦéĿĴæĺ¥": 7194,
      "è¯´è¿ĩçļĦ": 7195,
      "çĶŁåŃĺ": 7196,
      "ä¸ĭçĿĢ": 7197,
      "å¸®æĪĳ": 7198,
      "çģĮæºī": 7199,
      "äºķ": 7200,
      "ä¸Ģå¼Ģå§ĭ": 7201,
      "åĢĳ": 7202,
      "ç®Ĺæĺ¯": 7203,
      "åľ¨å¿ĥä¸Ĭ": 7204,
      "èĮ«èĮ«äººæµ·": 7205,
      "çĤĬçĥŁ": 7206,
      "ä¸Ģä¸Ģ": 7207,
      "åľ¨å¤ľéĩĮ": 7208,
      "å¯¹ä½łçļĦçĪ±": 7209,
      "åĪ«éĹ®": 7210,
      "å¹¶æ²¡æľī": 7211,
      "çīµçĿĢä½łçļĦæīĭ": 7212,
      "ĠæĢİ": 7213,
      "Ġä¸¤": 7214,
      "Ġå¿ĥä¸Ń": 7215,
      "ä¼¯": 7216,
      "éĿ¢å®¹": 7217,
      "å¤±äºĨ": 7218,
      "Ġhappy": 7219,
      "èĥľè¿ĩ": 7220,
      "ä½łç»ĻæĪĳçļĦ": 7221,
      "åĩ¤åĩ°": 7222,
      "ä¸įåĲ¬": 7223,
      "åıĳèĬ½": 7224,
      "åħ¬å¹³": 7225,
      "ä»ĸä»¬è¯´": 7226,
      "å¾ªçİ¯": 7227,
      "éķ¿è·¯": 7228,
      "è¿İçĿĢ": 7229,
      "åºĨå¹¸": 7230,
      "å´İå²ĸ": 7231,
      "æµĳ": 7232,
      "æĪĳçļĦäºº": 7233,
      "åĪ«åİ»": 7234,
      "ä»¥å¾Ģ": 7235,
      "åįĥå¹´çļĦ": 7236,
      "éģįåľ°": 7237,
      "éģ¥æľĽ": 7238,
      "æĤłæī¬": 7239,
      "åįĥå±±ä¸ĩæ°´": 7240,
      "¦çĦ¶": 7241,
      "Ġä¸ĢçĶŁ": 7242,
      "ä½łæĪĳçļĦ": 7243,
      "çĥĻ": 7244,
      "Ġain": 7245,
      "à½¡": 7246,
      "ä»įåľ¨": 7247,
      "ĠDA": 7248,
      "ä¸įåĲĮçļĦ": 7249,
      "Ġå¼Ģ": 7250,
      "ĠåĽŀå¿Ĩ": 7251,
      "ä½łåĨį": 7252,
      "ä½łèĩªå·±": 7253,
      "ä¸įè®©ä½ł": 7254,
      "ä¸įæŃ¢": 7255,
      "æľīè°ģèĥ½": 7256,
      "çŃĸ": 7257,
      "ç¦»æĦģ": 7258,
      "é£ŀåĳĢ": 7259,
      "æ¶²": 7260,
      "çĸ¾": 7261,
      "ful": 7262,
      "åĳĺ": 7263,
      "èµ·èĲ½": 7264,
      "ä½ĵæ¸©": 7265,
      "å½¼å²¸": 7266,
      "åĨ°åĨ»": 7267,
      "é¢ĨæĤŁ": 7268,
      "RY": 7269,
      "æ»¡æĢĢ": 7270,
      "åĽłæŃ¤": 7271,
      "åŁŁ": 7272,
      "è¿·éĽ¾": 7273,
      "æİīäºĨ": 7274,
      "ä½łä¸įæĩĤ": 7275,
      "æ··ä¹±": 7276,
      "çĶľè¨Ģèľľè¯Ń": 7277,
      "åıªæĺ¯ä½ł": 7278,
      "ä¸ĬéĿ¢": 7279,
      "æ³ªçľ¼": 7280,
      "çĩķåŃĲ": 7281,
      "çĪ±è°ģ": 7282,
      "è¦º": 7283,
      "çķĻçĿĢ": 7284,
      "åĨ°éĽª": 7285,
      "æĭ¿çĿĢ": 7286,
      "çļĦèĢģ": 7287,
      "ä¸įå¿į": 7288,
      "ä»Ĺ": 7289,
      "è¿Ļä¸Ģå¤©": 7290,
      "çĽ¸çŁ¥": 7291,
      "åĲ¬åĲ¬": 7292,
      "æĢ»ä¼ļæľī": 7293,
      "è¿·éĢĶ": 7294,
      "çĥŃæ³ª": 7295,
      "åĤį": 7296,
      "å¯ĴåĨ¬": 7297,
      "Ġnew": 7298,
      "EE": 7299,
      "æĪĳåıªè¦ģ": 7300,
      "ä½łçļĦç¾İ": 7301,
      "å¯¹çĪ±": 7302,
      "ç©¹": 7303,
      "çĹĴ": 7304,
      "æ°Ķåĳ³": 7305,
      "åĵİåĵİ": 7306,
      "ĠçŃīå¾ħ": 7307,
      "æľīæ¢¦": 7308,
      "åıªåĽłä¸º": 7309,
      "æ¢¯": 7310,
      "å¯¹éĿ¢": 7311,
      "ç»ĵå©ļ": 7312,
      "Ġunder": 7313,
      "ä½łæĽ¾ç»ı": 7314,
      "éĿ©": 7315,
      "çľĭè¿ĩ": 7316,
      "çľŁçĲĨ": 7317,
      "æīĢçĪ±": 7318,
      "åģļä»Ģä¹Ī": 7319,
      "å®¶åĽŃ": 7320,
      "åĮĹæĸ¹": 7321,
      "æĭ¯æķĳ": 7322,
      "èĬ±åĽŃ": 7323,
      "è§ģè¿ĩ": 7324,
      "çĻ½èī²çļĦ": 7325,
      "ä¸ĸçķĮä¸Ĭ": 7326,
      "æī¾æĪĳ": 7327,
      "çļĦå¿ĥè·³": 7328,
      "çĶŁæ´»çļĦ": 7329,
      "åĮħå®¹": 7330,
      "è¿Ļæ®µæĥħ": 7331,
      "ä¸įå¼ĥ": 7332,
      "å¤©æĦı": 7333,
      "çĶ¨ä¸ĢçĶŁ": 7334,
      "å¹³å¸¸": 7335,
      "èµŀç¾İ": 7336,
      "èĻĶè¯ļ": 7337,
      "Da": 7338,
      "æĪĳéĤ£": 7339,
      "ä¸Ģä»¶": 7340,
      "çľĭçļĦ": 7341,
      "çĽ¸éļĶ": 7342,
      "ä½ĻçĶŁ": 7343,
      "ĠæĪĸ": 7344,
      "ä¹Łå¾Ī": 7345,
      "æĹłå½±": 7346,
      "å¾Ĺåĥı": 7347,
      "çľ¼ä¸ŃçļĦ": 7348,
      "é¸½": 7349,
      "æĪĳæĺ¯åĲ¦": 7350,
      "æĪĺæĸĹ": 7351,
      "ĠMY": 7352,
      "Ġsmile": 7353,
      "æī¹": 7354,
      "åİħ": 7355,
      "è¯´åĩºæĿ¥": 7356,
      "å¤ªå°ĳ": 7357,
      "èįĴèĬľ": 7358,
      "çĸĳéĹ®": 7359,
      "å°´": 7360,
      "ä¹Łæĥ³": 7361,
      "æīĭæĮĩ": 7362,
      "å°½åĬĽ": 7363,
      "è¿ĺæĺ¯è¦ģ": 7364,
      "Ġmyself": 7365,
      "éĺ¿åĵ¥": 7366,
      "æ³¢æµª": 7367,
      "è®½": 7368,
      "çľĭæ¸ħæ¥ļ": 7369,
      "åĪ«è¦ģ": 7370,
      "æµ·é£İ": 7371,
      "åĨ·é£İ": 7372,
      "å¦ĤæŀľæĪĳ": 7373,
      "æľĢåĪĿçļĦ": 7374,
      "åĩĭè°¢": 7375,
      "IT": 7376,
      "Ġä¸ĭ": 7377,
      "å¾Ħ": 7378,
      "èĲį": 7379,
      "Ġwoo": 7380,
      "åį´åľ¨": 7381,
      "å¿µå¤´": 7382,
      "åĳ¼åĸĬ": 7383,
      "æ¨£": 7384,
      "Ġinto": 7385,
      "å¦Ĵå¿Į": 7386,
      "çļĦå¤ľéĩĮ": 7387,
      "çļĦè§ĴèĲ½": 7388,
      "å¯¹è°ģ": 7389,
      "åīįå°ĺ": 7390,
      "åĶ±çļĦ": 7391,
      "Ġold": 7392,
      "é¥¶": 7393,
      "è¡¨çİ°": 7394,
      "Ġwaiting": 7395,
      "oke": 7396,
      "Ġå¸¦": 7397,
      "ä¸Ģä¸²": 7398,
      "è¯¶": 7399,
      "å¤ľå¹ķ": 7400,
      "Ġsorry": 7401,
      "ä½ıä½ł": 7402,
      "Ġtogether": 7403,
      "çĶľç¾İ": 7404,
      "æ½º": 7405,
      "éĤ£ä¸Ģå¹´": 7406,
      "ä¹ŁæĹł": 7407,
      "Ġside": 7408,
      "éĽ¨çĤ¹": 7409,
      "æ·±æ¸Ĭ": 7410,
      "Ġde": 7411,
      "æģĭæĥħ": 7412,
      "åħ³ä¸Ĭ": 7413,
      "éĢģæĪĳ": 7414,
      "å¥Ķæ³¢": 7415,
      "èįĴåĩī": 7416,
      "åĽ°æĥĳ": 7417,
      "æĬļå¹³": 7418,
      "Everybody": 7419,
      "ä¼ĺéĽħ": 7420,
      "äºĨä¸Ģä¸ª": 7421,
      "åİ»éĿ¢å¯¹": 7422,
      "æĺ¥èĬ±": 7423,
      "æĹ©çŁ¥éģĵ": 7424,
      "ä¸īæľĪ": 7425,
      "é¸¥": 7426,
      "åĸľæ¬¢æĪĳ": 7427,
      "ä»Ĭå¤©çļĦ": 7428,
      "é£İéĽ¨éĽ¨": 7429,
      "æİĮæı¡": 7430,
      "è®¡ç®Ĺ": 7431,
      "æĤĦæĤĦåľ°": 7432,
      "æ³¥åľŁ": 7433,
      "æ²Ĵæľī": 7434,
      "mor": 7435,
      "ĠæĢķ": 7436,
      "æĪĳæĺİçĻ½": 7437,
      "åĬ¡": 7438,
      "ä½ķä»¥": 7439,
      "æ¯ıæ®µ": 7440,
      "æ°´éķ¿": 7441,
      "é¦Ĩ": 7442,
      "æĢĿèĢĥ": 7443,
      "åĵŃè¿ĩ": 7444,
      "æĩµæĩĤ": 7445,
      "ä¼ļåľ¨": 7446,
      "ä¸įè¦ģè¯´": 7447,
      "æŁĶæŁĶ": 7448,
      "èĪŀè¹Ī": 7449,
      "éĤ£ä¸ªäºº": 7450,
      "Ġthough": 7451,
      "IGH": 7452,
      "å°±è¿ŀ": 7453,
      "èĢģå©Ĩ": 7454,
      "åĨĻçļĦ": 7455,
      "æľªæĿ¥çļĦ": 7456,
      "åıįè¦Ĩ": 7457,
      "ĠNO": 7458,
      "èį£èĢĢ": 7459,
      "å¼Ĥä¹¡": 7460,
      "çķıæĥ§": 7461,
      "è¿Ļå¤©": 7462,
      "éļĻ": 7463,
      "è½»çĭĤ": 7464,
      "åħ¨å¿ĥ": 7465,
      "ãģĦãģ¦": 7466,
      "å±ŀäºİä½ł": 7467,
      "ãĢĤãĢĤãĢĤãĢĤ": 7468,
      "like": 7469,
      "æĺ¯ç§į": 7470,
      "çĪ±çĿĢæĪĳ": 7471,
      "è¯Ħ": 7472,
      "æ°¸è¿ľéĥ½": 7473,
      "åĢĴæķ°": 7474,
      "ied": 7475,
      "åģ·åģ·çļĦ": 7476,
      "ä¸Ģä½į": 7477,
      "éĥ½å¾Ī": 7478,
      "ouch": 7479,
      "å¤§æ¦Ĥ": 7480,
      "èº«ä»½": 7481,
      "ç¥Ń": 7482,
      "é»ĳå¤ľéĩĮ": 7483,
      "æĽ¿æĪĳ": 7484,
      "å¹¼ç¨ļ": 7485,
      "ä¼ļåıĺ": 7486,
      "å¸½": 7487,
      "èĤº": 7488,
      "å¤ļå°ĳä¸ª": 7489,
      "Ġbye": 7490,
      "åķª": 7491,
      "æľĢé«ĺ": 7492,
      "éĽ¨ä¸ĭ": 7493,
      "çĭ¬çī¹": 7494,
      "atter": 7495,
      "åĳ¨åĽ´": 7496,
      "åĩĭéĽ¶": 7497,
      "çľ¨çľ¼": 7498,
      "Like": 7499,
      "ç»ļçĥĤ": 7500,
      "è¿Ļé¦ĸ": 7501,
      "åıĪè¦ģ": 7502,
      "çªĴ": 7503,
      "Ġhas": 7504,
      "éĺ´éľ¾": 7505,
      "è·ŁæĪĳä¸Ģèµ·": 7506,
      "èķ¾": 7507,
      "æŀ«åı¶": 7508,
      "ä¸įä¸Ģå®ļ": 7509,
      "åıĪä¸Ģ": 7510,
      "çĹĽåĵŃ": 7511,
      "çĽ´è§ī": 7512,
      "Ġname": 7513,
      "Ġsomething": 7514,
      "æģ°æģ°": 7515,
      "èī°éļ¾": 7516,
      "å°´å°¬": 7517,
      "æ°§": 7518,
      "Ġsoul": 7519,
      "é©¬ä¸Ĭ": 7520,
      "çĴ¨": 7521,
      "éĵŃå¿ĥ": 7522,
      "Ñĸ": 7523,
      "çļĦæł·åŃĲ": 7524,
      "åķı": 7525,
      "èĬ¦": 7526,
      "éĺ±": 7527,
      "æŃĮæīĭ": 7528,
      "å¾Ģå¾Ģ": 7529,
      "Ġparty": 7530,
      "çıįèĹı": 7531,
      "åĪ¶ä½ľ": 7532,
      "æľ«æĹ¥": 7533,
      "Ġqu": 7534,
      "Ù¾": 7535,
      "åľ¨è¿ľæĸ¹": 7536,
      "å¿ĥæĢĿ": 7537,
      "åĨ¤": 7538,
      "çĿĢçĪ±": 7539,
      "å°±å¥½åĥı": 7540,
      "ä½łçļĦå£°éŁ³": 7541,
      "åĮ¹": 7542,
      "æĶ¶æĭ¾": 7543,
      "çº¯æ´ģ": 7544,
      "åķ¦åķ¦åķ¦åķ¦åķ¦åķ¦": 7545,
      "éĻįèĲ½": 7546,
      "è±ªæĥħ": 7547,
      "19": 7548,
      "å¿ĥçªĿ": 7549,
      "å¤©é«ĺ": 7550,
      "æĿ¥æĹ¶": 7551,
      "æľµæľµ": 7552,
      "æĹģè¾¹": 7553,
      "å¾®ç¬ĳçĿĢ": 7554,
      "ĠSt": 7555,
      "éĤ£è¾¹": 7556,
      "ç¬ĳäºĨ": 7557,
      "Ġye": 7558,
      "ç®ĹäºĨ": 7559,
      "çĭ¬è¡Į": 7560,
      "èĪŀåĬ¨": 7561,
      "åĿļåĨ³": 7562,
      "åĲĥé¥Ń": 7563,
      "åĮĹé£İ": 7564,
      "å±ĭæªĲ": 7565,
      "æĬµæĬĹ": 7566,
      "æĤ¬å´ĸ": 7567,
      "ä¸įè®º": 7568,
      "èĲ½åľ°": 7569,
      "Ġthen": 7570,
      "ä¸įæĺ¯æĪĳçļĦ": 7571,
      "èľ¡": 7572,
      "ç©¿çĿĢ": 7573,
      "å½Ĵå®¶": 7574,
      "æĺİå¤©çļĦ": 7575,
      "å¯Ĵé£İ": 7576,
      "ãģŁãģĦ": 7577,
      "åĳ½è¿ĲçļĦ": 7578,
      "They": 7579,
      "åĨįä¸į": 7580,
      "ä½łçļĦå¥½": 7581,
      "Ġbad": 7582,
      "é£ĺçĿĢ": 7583,
      "å¸¸åľ¨": 7584,
      "Ġinside": 7585,
      "Ġhey": 7586,
      "éĻ·éĺ±": 7587,
      "ÛĪ": 7588,
      "æµĬ": 7589,
      "ãģŃ": 7590,
      "è°ģæĺ¯": 7591,
      "æĪĳä»¬ä¿©": 7592,
      "åĲ¬ä¸įè§ģ": 7593,
      "Ġä½łä¼ļ": 7594,
      "æ¡Ĥ": 7595,
      "åĴĮæĪĳä¸Ģèµ·": 7596,
      "é¹¿": 7597,
      "åĵ©åĵ©": 7598,
      "ä½łä¸įåĨį": 7599,
      "æĬĬéĤ£": 7600,
      "åĲĮæĹ¶": 7601,
      "æĤ²åī§": 7602,
      "ä¸ĩäºº": 7603,
      "éħĴéĨī": 7604,
      "é¸¦": 7605,
      "çļĦçĪ±äºº": 7606,
      "æĻ¯èī²": 7607,
      "åĨ²çł´": 7608,
      "ç¢°åĪ°": 7609,
      "æĻºæħ§": 7610,
      "iz": 7611,
      "wu": 7612,
      "å¿ĥå£°": 7613,
      "å¤©èī²": 7614,
      "æ¯ıåĪĨ": 7615,
      "éĶĢ": 7616,
      "è¶Ĭæ·±": 7617,
      "æĪĳæĺ¯ä¸ª": 7618,
      "çĿ¡ä¸įçĿĢ": 7619,
      "cause": 7620,
      "ç¸": 7621,
      "ä½łå¿ĥéĩĮ": 7622,
      "ä¸Ģæł¹": 7623,
      "æľīåĩłå¤ļ": 7624,
      "å¦ĤçĥŁ": 7625,
      "åį´ä¸įèĥ½": 7626,
      "åĩłè®¸": 7627,
      "Ġhop": 7628,
      "çļĦèĦ¸åºŀ": 7629,
      "çºłç»ĵ": 7630,
      "æĿĥåĪ©": 7631,
      "çĴĢçĴ¨": 7632,
      "ave": 7633,
      "Ġè¿ĩ": 7634,
      "ä¸Ģä¸ĩ": 7635,
      "å¦ĤçĶ»": 7636,
      "åºı": 7637,
      "ç¼Ģ": 7638,
      "æĺ¥é£İåĲ¹": 7639,
      "é¦Ļåĳ³": 7640,
      "è¿ĻæĿ¡è·¯": 7641,
      "sy": 7642,
      "çļĦèĩªçĶ±": 7643,
      "æĪĳè§īå¾Ĺ": 7644,
      "å¾ĹæĦı": 7645,
      "åı¯ç¬ĳ": 7646,
      "Ġä½łæĺ¯": 7647,
      "çģ«èĬ±": 7648,
      "ä¹Łä¸įæĥ³": 7649,
      "æ·¡å¿ĺ": 7650,
      "å±ķç¿ħ": 7651,
      "èĮīèİīèĬ±": 7652,
      "Ġhard": 7653,
      "Ġèĩªå·±": 7654,
      "çĪ±è¿ĩçļĦ": 7655,
      "å®´": 7656,
      "è¾ŀ": 7657,
      "åĥıéĤ£": 7658,
      "æ»¡èº«": 7659,
      "äº²æīĭ": 7660,
      "æīĵæĭ¼": 7661,
      "é¢ĵåºŁ": 7662,
      "With": 7663,
      "åıĪä¸Ģæ¬¡": 7664,
      "åģļäºĨ": 7665,
      "åĲ¹è¿ĩ": 7666,
      "å°±æĺ¯è¿Ļæł·": 7667,
      "æĢĿå¿µçļĦ": 7668,
      "åĪļåĪļ": 7669,
      "æ²¡æľīäººèĥ½": 7670,
      "èįĨæ£ĺ": 7671,
      "ĠæľĢåĲİ": 7672,
      "æĪĳå¤ļ": 7673,
      "èµ°è¿ĳ": 7674,
      "å°ıæ²³": 7675,
      "ĠæĪĳåľ¨": 7676,
      "éĶħ": 7677,
      "æĪĳæĺ¯ä¸Ģä¸ª": 7678,
      "çĶ·åŃĲ": 7679,
      "è¿Ļä¹Īå¤ļ": 7680,
      "çļĦä¼¤åı£": 7681,
      "å¿ĺåį´": 7682,
      "ard": 7683,
      "æļĹç¤º": 7684,
      "è¾Ľéħ¸": 7685,
      "çĪ±ä½łçļĦäºº": 7686,
      "rom": 7687,
      "ä¸ĢæľĽ": 7688,
      "å¥½ä¼¼": 7689,
      "å¥½åıĭ": 7690,
      "åĸ·": 7691,
      "èį«": 7692,
      "æĤ²åĸľ": 7693,
      "çļĦå¿ĥçģµ": 7694,
      "è®°å¾ĹæĪĳ": 7695,
      "æĪ¿åŃĲ": 7696,
      "æ¹¿äºĨ": 7697,
      "ä»İä»Ĭä»¥åĲİ": 7698,
      "Never": 7699,
      "with": 7700,
      "éĤĬ": 7701,
      "ä¸Ĭä½ł": 7702,
      "é£İå£°": 7703,
      "åĲ¬å¾Ĺ": 7704,
      "æĬ±æĬ±": 7705,
      "åĽłä¸ºæľīä½ł": 7706,
      "éĵ¾": 7707,
      "ĠØ¨": 7708,
      "ĠéĤ£äºĽ": 7709,
      "åľ¨ä½ķæĸ¹": 7710,
      "æĹ¶åĪĨ": 7711,
      "åıĳèªĵ": 7712,
      "åħ¨èº«": 7713,
      "çŀİ": 7714,
      "åķ¤éħĴ": 7715,
      ">>": 7716,
      "not": 7717,
      "çļĦå¥³åŃ©": 7718,
      "ä½łä»İ": 7719,
      "è¯¦": 7720,
      "æĹłå¿§": 7721,
      "çĪ±æĥħæĺ¯": 7722,
      "è°Īæĥħ": 7723,
      "mas": 7724,
      "Ġáł": 7725,
      "æĪĳæĢ»": 7726,
      "åĲ½": 7727,
      "æĪĲçģ°": 7728,
      "åģļä¸Ģä¸ª": 7729,
      "åĬ¨äºĨ": 7730,
      "é£ĺæĿ¥": 7731,
      "èī³éĺ³": 7732,
      "å±ķå¼Ģ": 7733,
      "èļĢ": 7734,
      "Be": 7735,
      "çŁĽ": 7736,
      "ä¸ĢåĪ¹": 7737,
      "åĺ¶": 7738,
      "åĹ¬": 7739,
      "æľīäºĽäºº": 7740,
      "ÛķÙĨ": 7741,
      "çļĦèªĵè¨Ģ": 7742,
      "çļĦèĥĮå½±": 7743,
      "ä½łè¿ĺåľ¨": 7744,
      "çĪ±å¥¹": 7745,
      "æĥ³å¾Ĺ": 7746,
      "éĥ½åı¯": 7747,
      "æĹ¥æĹ¥": 7748,
      "çĲĨæĻº": 7749,
      "çŀ³": 7750,
      "æ¼Ķåĩº": 7751,
      "åĪĽä¼¤": 7752,
      "åĳľåĳľ": 7753,
      "io": 7754,
      "çļĦåĭĩæ°Ķ": 7755,
      "ä¼ļæĽ´": 7756,
      "æµĩ": 7757,
      "ä½łçļĦæ³ª": 7758,
      "å¥½æ¢¦": 7759,
      "Ġfar": 7760,
      "éĶĻè¿ĩäºĨ": 7761,
      "æī¿æĭħ": 7762,
      "æĲľ": 7763,
      "ä¹İä½ł": 7764,
      "çĥĪçģ«": 7765,
      "ç²īç¢İ": 7766,
      "ĠæĽ¾ç»ı": 7767,
      "åĳĹ": 7768,
      "åıªæľīæĪĳ": 7769,
      "æ¯ıä¸Ģç§Ĵ": 7770,
      "éªĹèĩªå·±": 7771,
      "éĻ¤äºĨä½ł": 7772,
      "é½¿": 7773,
      "ãģłãģĳ": 7774,
      "Ġè·³": 7775,
      "æĿ¥æĹ¥": 7776,
      "è¯´è¯´": 7777,
      "è®°å½ķ": 7778,
      "åĩłçķª": 7779,
      "äº²å¯Ĩ": 7780,
      "æĴ¼": 7781,
      "âĢ¦âĢ¦âĢ¦âĢ¦": 7782,
      "ä¼Ĭäºº": 7783,
      "æİ©åŁĭ": 7784,
      "æĴķè£Ĥ": 7785,
      "Take": 7786,
      "Who": 7787,
      "éĤ£æĢķ": 7788,
      "éĺģ": 7789,
      "è·¯çļĦ": 7790,
      "Ġä½łè¦ģ": 7791,
      "æģ¨æĪĳ": 7792,
      "ther": 7793,
      "çļĦåħīèĬĴ": 7794,
      "åį»": 7795,
      "æĥħä¹ī": 7796,
      "çĽ¸çīĩ": 7797,
      "è¶Ĭè¿ľ": 7798,
      "èĽ®": 7799,
      "çĪ¶äº²": 7800,
      "rist": 7801,
      "æĥŁ": 7802,
      "çĪ±ä½łçļĦå¿ĥ": 7803,
      "èµ°ä¸ĭåİ»": 7804,
      "èĥŃ": 7805,
      "ä¸įå¿ħåĨį": 7806,
      "æŀģéĻĲ": 7807,
      "æĹłéĻħ": 7808,
      "çŃĭ": 7809,
      "æĬĬæĪĳçļĦ": 7810,
      "ä¹ĲåĽŃ": 7811,
      "åĲ¬ä½łè¯´": 7812,
      "ä¾ĿåĳĢ": 7813,
      "æıī": 7814,
      "å¹³çº¿": 7815,
      "æĪĳæĥ³èµ·": 7816,
      "éĢıè¿ĩ": 7817,
      "çģ°èī²": 7818,
      "ans": 7819,
      "å§»": 7820,
      "ç«Ń": 7821,
      "æī¾åĪ°ä½ł": 7822,
      "Ġpeople": 7823,
      "åį°è±¡": 7824,
      "å°Ŀè¯ķ": 7825,
      "ä¸ĢåľĪ": 7826,
      "ä¸ºå¥¹": 7827,
      "å¤ªéļ¾": 7828,
      "æĬĬä½łçļĦ": 7829,
      "çļĦå¿ĥæĦ¿": 7830,
      "å°±æĺ¯æĪĳçļĦ": 7831,
      "é¦Ļæ°´": 7832,
      "å®½å®¹": 7833,
      "è·¨è¶Ĭ": 7834,
      "ĠåĨĻ": 7835,
      "ä½łè¿Ļ": 7836,
      "ä¸įçľĭ": 7837,
      "å¤ļæĥħçļĦ": 7838,
      "å·²ä¸įåĨį": 7839,
      "ä¸ºä½łèĢĮ": 7840,
      "åĲ»ä½ł": 7841,
      "è¹Ħ": 7842,
      "çļĦå¾®ç¬ĳ": 7843,
      "åľ¨æ¯ıä¸ª": 7844,
      "å¿ĥçĽ¸": 7845,
      "åĴ¦": 7846,
      "ä¿Ĥ": 7847,
      "æºľèµ°": 7848,
      "æ¯ģçģŃ": 7849,
      "çªĴæģ¯": 7850,
      "æł½": 7851,
      "åıĪä¸Ģå¹´": 7852,
      "è¢ľ": 7853,
      "åĶ¯çĭ¬": 7854,
      "æķĮäºº": 7855,
      "Go": 7856,
      "Ġæ°´": 7857,
      "çľĭä¸Ģçľĭ": 7858,
      "ä¸ŃéĹ´": 7859,
      "è¾©": 7860,
      "åĪ«æĢķ": 7861,
      "red": 7862,
      "æį¡": 7863,
      "åģľäºĨ": 7864,
      "è¡¨ç¤º": 7865,
      "åĵĢä¹Ĳ": 7866,
      "çĸ¼çĹĽ": 7867,
      "ä»İæŃ¤ä»¥åĲİ": 7868,
      "æŀĿå¤´": 7869,
      "æĤ²æ¬¢ç¦»åĲĪ": 7870,
      "æµ·èªĵå±±çĽŁ": 7871,
      "Ġåĵª": 7872,
      "æľīæĪĳçļĦ": 7873,
      "æĹłéľĢ": 7874,
      "åıªä¸ºäºĨ": 7875,
      "èµ°å¾Ĺ": 7876,
      "æĶ¾éĢĲ": 7877,
      "åİ®å®Ī": 7878,
      "Ġçº¢": 7879,
      "Ġè·Ł": 7880,
      "ä¹ŀ": 7881,
      "è¿ĺä¸į": 7882,
      "mer": 7883,
      "åĬłéĢŁ": 7884,
      "å«ī": 7885,
      "çĪ¬ä¸Ĭ": 7886,
      "åĸ§éĹ¹": 7887,
      "isten": 7888,
      "æĦ¤æĢĴ": 7889,
      "èĥŃèĦĤ": 7890,
      "ĠéĹ®": 7891,
      "æĪĳå®¶": 7892,
      "æĸ¤": 7893,
      "å¤ªè¿ľ": 7894,
      "ç»ıåħ¸": 7895,
      "èĦ¸é¢Ĭ": 7896,
      "è®°å¾Ĺä½ł": 7897,
      "ĠåĪĨ": 7898,
      "Ġå¿ĥéĩĮ": 7899,
      "Ġåķ°": 7900,
      "æĪĳå®ģæĦ¿": 7901,
      "åı¬": 7902,
      "è°Ĳ": 7903,
      "åĴĭ": 7904,
      "æ¯ĶèµĽ": 7905,
      "ä¸Ģæ¬¡ä¸Ģæ¬¡": 7906,
      "Ġpla": 7907,
      "å¾ĺå¾Ĭåľ¨": 7908,
      "è®¨å¥½": 7909,
      "æ¾ľ": 7910,
      "ĠæľĽ": 7911,
      "çļĦèº«å½±": 7912,
      "æľīå¾Īå¤ļ": 7913,
      "èµĭ": 7914,
      "éĢ¸": 7915,
      "é£İåĴĮ": 7916,
      "åĲ¬è¿ĩ": 7917,
      "å®¶äºº": 7918,
      "åįĥç§ĭ": 7919,
      "å¤ļå°ĳäºº": 7920,
      "è¿½èµ¶": 7921,
      "ĠBABY": 7922,
      "iu": 7923,
      "ä¸įåĲİæĤĶ": 7924,
      "æĹłæ¯Ķ": 7925,
      "Ġar": 7926,
      "å¿«æĿ¥": 7927,
      "è®©æĪĳåĨį": 7928,
      "æī¾ä½ł": 7929,
      "ç´¯ç´¯": 7930,
      "åĵĢä¼¤": 7931,
      "æ³¡æ²«": 7932,
      "æĪĳå¥½æĥ³": 7933,
      "ä¸įå½Ĵ": 7934,
      "åı½": 7935,
      "çĪ±èĩªå·±": 7936,
      "åĪ°è¿Ļ": 7937,
      "è¿ĺå¥½": 7938,
      "æ»¡éĿ¢": 7939,
      "çĪ±ä¸ĬäºĨä½ł": 7940,
      "é£İéĽ¨ä¸Ń": 7941,
      "ĠGo": 7942,
      "ãĤĮãģ¦": 7943,
      "åłĨç§¯": 7944,
      "åī²èĪį": 7945,
      "Ġåĺ¿": 7946,
      "çļĦè¡¨æĥħ": 7947,
      "äºĨä¸įèµ·": 7948,
      "æĥ³åĵŃ": 7949,
      "ç¾İæ»¡": 7950,
      "ç»Ļè°ģ": 7951,
      "å¤´æĿ¥": 7952,
      "è¯Ŀé¢ĺ": 7953,
      "æı¡çĿĢ": 7954,
      "çīĽç¾Ĭ": 7955,
      "èģĶç»ľ": 7956,
      "Ġä½ķå¿ħ": 7957,
      "æĥħèĬĤ": 7958,
      "åĶµ": 7959,
      "ä»ĬåĲİ": 7960,
      "å°½éĩı": 7961,
      "åĲĮæĥħ": 7962,
      "èĥĮè´Ł": 7963,
      "æĭľæīĺ": 7964,
      "ä¸Ģè·¯ä¸Ĭ": 7965,
      "æĺ¯è¿Ļæł·": 7966,
      "å¾ŀ": 7967,
      "å·¾": 7968,
      "æ´ª": 7969,
      "èĮ§": 7970,
      "~~~~~~~~": 7971,
      "ä¸įæľ½": 7972,
      "ä¸Ģè§ģ": 7973,
      "æĦŁåı¹": 7974,
      "äºĳæľµ": 7975,
      "åĨįè§ģäºĨ": 7976,
      "æĬµæĮ¡": 7977,
      "Ġwonder": 7978,
      "==": 7979,
      "Ġéĩį": 7980,
      "Ġæīįèĥ½": 7981,
      "çľĭç©¿": 7982,
      "æĪĳä»¬æĽ¾ç»ı": 7983,
      "å±ģ": 7984,
      "ä¿¯": 7985,
      "è·¯è¾¹": 7986,
      "æĸ¹æ³ķ": 7987,
      "èĹ¤": 7988,
      "æ¶ĪéĢĿ": 7989,
      "å²ģæľĪçļĦ": 7990,
      "ai": 7991,
      "ull": 7992,
      "Ġ2": 7993,
      "Ġä¸İ": 7994,
      "Ġè¯¥": 7995,
      "æĥ³ä¸Ģæĥ³": 7996,
      "èĥ½éĩı": 7997,
      "ÂłÂł": 7998,
      "å¾Ĺå¤±": 7999,
      "åĸµ": 8000,
      "ä»¥å¾Į": 8001,
      "åĨ·æ¸ħ": 8002,
      "æĤĦçĦ¶": 8003,
      "âĪ¶": 8004,
      "00": 8005,
      "ä¸įæŃ»": 8006,
      "ä¼½": 8007,
      "æ¢¦ä¹¡": 8008,
      "ç©ºæ´ŀ": 8009,
      "åıĭæĥħ": 8010,
      "çĿ¡çĿĢ": 8011,
      "æłĳåı¶": 8012,
      "some": 8013,
      "å¤©æĻ´": 8014,
      "é£Ľ": 8015,
      "å¼ĢæĢĢ": 8016,
      "å¯¹äºİ": 8017,
      "æĥ³èµ·äºĨ": 8018,
      "éģ¥éģ¥": 8019,
      "éĺĳçıĬ": 8020,
      "Ġtalk": 8021,
      "é£İéĽª": 8022,
      "æ·ļ": 8023,
      "åĶİ": 8024,
      "çĦļ": 8025,
      "æĽ´æ·±": 8026,
      "Ġdreams": 8027,
      "åĪĹè½¦": 8028,
      "è½°çĥĪ": 8029,
      "ĠåĲĳ": 8030,
      "æĺ¯æĹł": 8031,
      "åĨįåĽŀå¤´": 8032,
      "çĪ±ä½łçĪ±ä½ł": 8033,
      "ä¸ĢçĶŁä¸Ń": 8034,
      "æĹ§æĥħ": 8035,
      "ä¸įé¡¾ä¸ĢåĪĩ": 8036,
      "åįĥè¨Ģä¸ĩè¯Ń": 8037,
      "Ġåľ°": 8038,
      "Ġè¿ŀ": 8039,
      "ä¸ªä¸ª": 8040,
      "å¿ĺæĢĢ": 8041,
      "æ¶ī": 8042,
      "éĻªçĿĢ": 8043,
      "çĥ½": 8044,
      "åĽļ": 8045,
      "çĤī": 8046,
      "ä¸ĸçļĦ": 8047,
      "è´±": 8048,
      "åĪĩåĪĩ": 8049,
      "ä¸¾æĿ¯": 8050,
      "Ġè½»è½»": 8051,
      "Ġèİ«": 8052,
      "æĺ¯å¯¹": 8053,
      "äººè¯´": 8054,
      "è¿Ļå¤ľ": 8055,
      "èĩŃ": 8056,
      "èµ·çļĦ": 8057,
      "Ġä¸įçĶ¨": 8058,
      "åĸľæ¬¢çļĦ": 8059,
      "ä¿Ŀè¯ģ": 8060,
      "ĠGO": 8061,
      "æģŃåĸľæģŃåĸľ": 8062,
      "Girl": 8063,
      "ä¸Ģå¦Ĥ": 8064,
      "åĲ¬ä¸įåĪ°": 8065,
      "ç»Ŀæĥħ": 8066,
      "***": 8067,
      "åį³å°Ĩ": 8068,
      "ç¿»å¼Ģ": 8069,
      "åģ¶åĥı": 8070,
      "å·¦æīĭ": 8071,
      "oss": 8072,
      "åĸ§åĵĹ": 8073,
      "Ġä¾¿": 8074,
      "åıªä¸įè¿ĩ": 8075,
      "Ġtwo": 8076,
      "å¤§è¡Ĺ": 8077,
      "èº«å¿ĥ": 8078,
      "æŃĮé¢Ĥ": 8079,
      "çĶ¨æĪĳçļĦ": 8080,
      "åĸĿéħĴ": 8081,
      "åĺĽåĳ¢": 8082,
      "æĻ´ç©º": 8083,
      "æĪĳå¸ĮæľĽ": 8084,
      "å¿ĥæīī": 8085,
      "ä¸ºåĬĽ": 8086,
      "éĥ½ä¸Ģæł·": 8087,
      "åĩºéĹ¨": 8088,
      "æĦŁè§¦": 8089,
      "åĨ·æļĸ": 8090,
      "å¨±": 8091,
      "åħ³æ³¨": 8092,
      "æĪĳéĥ½ä¼ļ": 8093,
      "è§Ĥä¸ĸéŁ³èı©èĲ¨": 8094,
      "ä¸įçģŃ": 8095,
      "èµ·ä¼ı": 8096,
      "æµģè¨Ģ": 8097,
      "çĹ´çĭĤ": 8098,
      "èĥĮçĿĢ": 8099,
      "çĭĤçĥŃ": 8100,
      "ĠLi": 8101,
      "éĻªä¼´ä½ł": 8102,
      "å¿ĥä¸Ĭäºº": 8103,
      "Ġçľ¼æ³ª": 8104,
      "ä¸ĢæľĿ": 8105,
      "å¿ĥæľī": 8106,
      "é£İäºĳ": 8107,
      "åĩºåįĸ": 8108,
      "æľªäºĨ": 8109,
      "èĭ¥æĹł": 8110,
      "è¿ĺæĺ¯ä¼ļ": 8111,
      "ä¸īåįģ": 8112,
      "çŃīå¾ħçĿĢ": 8113,
      "æĥĬéĨĴ": 8114,
      "Ġoff": 8115,
      "çİ©åħ·": 8116,
      "Ġwithout": 8117,
      "stand": 8118,
      "èĬ±åĦ¿å¼Ģ": 8119,
      "Ġåıªæĥ³": 8120,
      "ä¸įçĪ±ä½ł": 8121,
      "åĴĮä½łçļĦ": 8122,
      "ä¹Łä¸įå¿ħ": 8123,
      "çĭĤéĩİ": 8124,
      "åĲįåĪ©": 8125,
      "è¦ĨçĽĸ": 8126,
      "æĩĴå¾Ĺ": 8127,
      "ä¸įæĤĶ": 8128,
      "æīĶ": 8129,
      "æ²®": 8130,
      "è¿ĻæĻļ": 8131,
      "çŁ¥å¿ĥ": 8132,
      "æ²¡æľīæĪĳ": 8133,
      "ä¾ĭ": 8134,
      "æµ·çļĦ": 8135,
      "éĥĳ": 8136,
      "ä½łä¸įå¿ħ": 8137,
      "ello": 8138,
      "æ¨¡ç³ĬäºĨ": 8139,
      "åįłæľī": 8140,
      "åĩĮä¹±": 8141,
      "çľĭå¾Ĺè§ģ": 8142,
      "Ġç»Ļ": 8143,
      "ĠæīĢæľī": 8144,
      "æĪĳçļĦæŃĮ": 8145,
      "å·²æĪĲ": 8146,
      "æīĭä¸ŃçļĦ": 8147,
      "åıĪèĥ½": 8148,
      "ç®¡å®ĥ": 8149,
      "éĢģç»Ļ": 8150,
      "Ġstand": 8151,
      "è¸ıçĿĢ": 8152,
      "æļĤåģľ": 8153,
      "çľºæľĽ": 8154,
      "ä¸ĢæĹ¦": 8155,
      "Ġyi": 8156,
      "ä¾Ľ": 8157,
      "é£ŀæĿ¥": 8158,
      "Ġcr": 8159,
      "å¦Ĥæŀľè¯´": 8160,
      "å¤±åİ»çļĦ": 8161,
      "æĿ¾å¼Ģ": 8162,
      "çģ¿çĥĤçļĦ": 8163,
      "åĻ¢åĻ¢": 8164,
      "ãģĵãģ®": 8165,
      "çľŁå®ŀçļĦ": 8166,
      "çŁĽçĽ¾": 8167,
      "OR": 8168,
      "dy": 8169,
      "Ġç»§ç»Ń": 8170,
      "æĪĳèĩª": 8171,
      "æĪĳæľª": 8172,
      "æĩĤäºĨ": 8173,
      "æŁĶè½¯": 8174,
      "ä¼łéĢĴ": 8175,
      "ä¸»é¢ĺ": 8176,
      "æ®ĭç¼º": 8177,
      "te": 8178,
      "äººä¸ĸéĹ´": 8179,
      "éĤ»": 8180,
      "äº²åĪĩ": 8181,
      "å²ģå²ģ": 8182,
      "ä¸ºäºĨçĪ±": 8183,
      "Ġhis": 8184,
      "ä¸įåģľåľ°": 8185,
      "æĮīæĢİ": 8186,
      "æģįæĥļ": 8187,
      "åĵ®": 8188,
      "åİ»æĥ³": 8189,
      "ä½łçļĦèĥĮå½±": 8190,
      "æģĻ": 8191,
      "åĶ»": 8192,
      "æīĢæİª": 8193,
      "æ±Ĥæ±Ĥä½ł": 8194,
      "éħĴæĿ¯": 8195,
      "ç¢İçīĩ": 8196,
      "ĠçĻ½": 8197,
      "Ġæľīä½ł": 8198,
      "ä½łä¸ºä»Ģä¹Ī": 8199,
      "ä¸įè¡Į": 8200,
      "å¿Ĳ": 8201,
      "å¿ĳ": 8202,
      "è¿Ļä¸įæĺ¯": 8203,
      "è¿ľè¡Į": 8204,
      "éļ¾æĶ¶": 8205,
      "Ġsea": 8206,
      "ä¸ºä½łåĶ±": 8207,
      "ä»»ä½ł": 8208,
      "æĪĳè¦ģåİ»": 8209,
      "æĹ§æĹ¶": 8210,
      "èĵ¦çĦ¶": 8211,
      "è®°å¿ĨçļĦ": 8212,
      "æĳĺä¸ĭ": 8213,
      "Ġç»Ī": 8214,
      "Ġäºĳ": 8215,
      "ä½łå°±åĥı": 8216,
      "è¦ģçļĦ": 8217,
      "é£ŀè¡Į": 8218,
      "æįĨ": 8219,
      "çģ«çģ«": 8220,
      "ä¸ĩä¸Ī": 8221,
      "Ġbest": 8222,
      "æĢ¨åı¹": 8223,
      "éŃĶæ³ķ": 8224,
      "çĤ«èĢĢ": 8225,
      "ä½łçļĦèº«å½±": 8226,
      "è·ĭ": 8227,
      "æµģéľ²": 8228,
      "Ġcha": 8229,
      "ä¸įä¼ļæľī": 8230,
      "åĽŀå¤´æľĽ": 8231,
      "äºĮäºº": 8232,
      "æ¢ħèĬ±": 8233,
      "äºıæ¬ł": 8234,
      "ĠçĦ¶åĲİ": 8235,
      "çīĪ": 8236,
      "å¤ªå¹³": 8237,
      "åıĪæĢķ": 8238,
      "æµģè½¬": 8239,
      "æĪĳä¸įç®¡": 8240,
      "çĭĤæ¬¢": 8241,
      "è¡Ĺéģĵ": 8242,
      "åĽ½åº¦": 8243,
      "Ġhead": 8244,
      "ç®Ģç®Ģåįķ": 8245,
      "è·Įè·Į": 8246,
      "èµ¶å¿«": 8247,
      "éħįåĲĪ": 8248,
      "à½¼à¼ĭ": 8249,
      "èĪĴæľį": 8250,
      "æĪĳä¸Ģå®ļ": 8251,
      "ä¸ĢåĢĭ": 8252,
      "ç»ĵå°¾": 8253,
      "å¢ĵ": 8254,
      "å¹¶éĿŀ": 8255,
      "éĻĮçĶŁçļĦ": 8256,
      "éģ®æİ©": 8257,
      "åľ£è¯ŀ": 8258,
      "ER": 8259,
      "å¿ĥéĹ´": 8260,
      "æĪĳçļĦèº«è¾¹": 8261,
      "åĪ«åľ¨": 8262,
      "å±±åĿ¡": 8263,
      "ĠIt": 8264,
      "æ³¢ç½Ĺ": 8265,
      "æĪĳçŁ¥éģĵä½ł": 8266,
      "æ³Ľé»Ħ": 8267,
      "æ²¦éĻ·": 8268,
      "Ġæģ¨": 8269,
      "æĪĳä¸İä½ł": 8270,
      "åľ°çĭ±": 8271,
      "ä¸Ģä¸ªæĪĳ": 8272,
      "åıĪåľ¨": 8273,
      "è¢«éģĹå¿ĺ": 8274,
      "èĢĮæĿ¥": 8275,
      "arry": 8276,
      "æį¢äºĨ": 8277,
      "éĺ¿å¦Ī": 8278,
      "Ġun": 8279,
      "æĦĪåĲĪ": 8280,
      "èĽ¾": 8281,
      "à¾²": 8282,
      "çĿĢæĪĳçļĦæīĭ": 8283,
      "æ¤ħ": 8284,
      "èĴ¸åıĳ": 8285,
      "æ²®ä¸§": 8286,
      "æĪĳæīĢæľī": 8287,
      "è¿¦": 8288,
      "ä¸įåĩĨ": 8289,
      "åĲ¾": 8290,
      "æĹº": 8291,
      "å¥³äººçļĦ": 8292,
      "é»ĳèī²çļĦ": 8293,
      "åĳĬçĻ½": 8294,
      "ä½¿ä½ł": 8295,
      "ä½ĵéªĮ": 8296,
      "èĿī": 8297,
      "åĽ°åľ¨": 8298,
      "å¿Ĳå¿ĳ": 8299,
      "tr": 8300,
      "æĪĳäº¦": 8301,
      "åĨįç»ĻæĪĳ": 8302,
      "ç¾İå¥³": 8303,
      "ä¸Ģä¸ªåĲ»": 8304,
      "å¦Ĥæŀľæľīä¸Ģå¤©": 8305,
      "ĠDo": 8306,
      "ç¼ºå°ĳ": 8307,
      "èĴĻèĴĻ": 8308,
      "ç®Ģç®Ģåįķåįķ": 8309,
      "Ġåıĺ": 8310,
      "ä½łç¦»å¼Ģ": 8311,
      "åıĪå¦Ĥä½ķ": 8312,
      "æĶ¾å£°": 8313,
      "å¤´ä¸Ĭ": 8314,
      "ãĤĦ": 8315,
      "æįı": 8316,
      "å¤ıæĹ¥": 8317,
      "ç´§ç´§çļĦ": 8318,
      "Ġblue": 8319,
      "man": 8320,
      "åĨľ": 8321,
      "å¯¿": 8322,
      "è¿ĻéĩĮçļĦ": 8323,
      "çĽĨ": 8324,
      "æ°£": 8325,
      "å¦ĤæĦı": 8326,
      "é£İæµª": 8327,
      "æ¢¦å·²": 8328,
      "åħīèį£": 8329,
      "è¢«è°ģ": 8330,
      "èµ¶èµ°": 8331,
      "ä¸ĢæĿ¯éħĴ": 8332,
      "å°Ĭä¸¥": 8333,
      "åı¤èĢģçļĦ": 8334,
      "pl": 8335,
      "Ġhat": 8336,
      "ä¸«": 8337,
      "æĪĳåĲ¬è§ģ": 8338,
      "æĺ¯åľ¨": 8339,
      "æĥ³ä¸įåĪ°": 8340,
      "åľ°åĽ¾": 8341,
      "æĪĳä»¬æĽ¾": 8342,
      "å¥¹ä»¬": 8343,
      "å²Ĥ": 8344,
      "æĬķéĻį": 8345,
      "å¯»è§ħè§ħ": 8346,
      "æľĿæľĿæļ®æļ®": 8347,
      "night": 8348,
      "åıĶ": 8349,
      "æ³½": 8350,
      "æĪĳä»¬ä¼ļ": 8351,
      "å¾Ģä¸ĭ": 8352,
      "æķ´å¤©": 8353,
      "åħħæ»¡äºĨ": 8354,
      "Yes": 8355,
      "know": 8356,
      "éĮ": 8357,
      "çļĦçİ«çĳ°": 8358,
      "ä¸Ģå¹ħ": 8359,
      "ä»ĵ": 8360,
      "è¿ĻæĦŁè§ī": 8361,
      "åİ»åģļ": 8362,
      "åĨįçĽ¸è§ģ": 8363,
      "äºĨè§£æĪĳ": 8364,
      "Ġæµ·": 8365,
      "æĺ¯çľŁçļĦ": 8366,
      "è¦ģè¯´": 8367,
      "æĥħè·¯": 8368,
      "åİ»åĲ§": 8369,
      "åİ»æµģæµª": 8370,
      "å¾Ĺè¿ĩ": 8371,
      "çľ¼åºķ": 8372,
      "urt": 8373,
      "é¹ħ": 8374,
      "ristmas": 8375,
      "å±ĳ": 8376,
      "å¿µå¿µ": 8377,
      "Ġfun": 8378,
      "å®ĪæľĽ": 8379,
      "æµĵæĥħ": 8380,
      "ĠæĦŁè§ī": 8381,
      "ä½łå¤ª": 8382,
      "æĺ¯å¥½": 8383,
      "èµİ": 8384,
      "éĤ£æĿ¡": 8385,
      "å¯¹æĪĳçļĦ": 8386,
      "è£¹": 8387,
      "æĹ©çŁ¥": 8388,
      "æ¡Ĩ": 8389,
      "çłĤ": 8390,
      "å¼ºçĥĪ": 8391,
      "çĶ·äººçļĦ": 8392,
      "æĪĳä»¬çļĦçĪ±æĥħ": 8393,
      "ãĥ¼": 8394,
      "èĴĻåı¤": 8395,
      "èī°èĭ¦": 8396,
      "¬ë": 8397,
      "ÙĪ": 8398,
      "çļĦç©ºæ°Ķ": 8399,
      "æľīå¤ļä¹Ī": 8400,
      "Ġmatter": 8401,
      "çı¾": 8402,
      "å¯»å¯»è§ħè§ħ": 8403,
      "çĶ·å¥³": 8404,
      "æ¶Īæķ£": 8405,
      "æĥħäººèĬĤ": 8406,
      "çļĦæĥħæŃĮ": 8407,
      "Ġremember": 8408,
      "æĶ¾å¼Ģæīĭ": 8409,
      "æ²¿çĿĢ": 8410,
      "èĩĤå¼¯": 8411,
      "ĠåĳĢ": 8412,
      "Ġown": 8413,
      "åĪĺ": 8414,
      "åľ¨èº«æĹģ": 8415,
      "ä½łçļĦæ¢¦": 8416,
      "ĠæĪĳå°±": 8417,
      "åİŁæľ¬": 8418,
      "äºĳå½©": 8419,
      "äº®äºĨ": 8420,
      "çĲĨä¼ļ": 8421,
      "ä»įæĹ§": 8422,
      "è£ħæ»¡": 8423,
      "èģĬå¤©": 8424,
      "åľ°ä¹ħå¤©éķ¿": 8425,
      "äººç¾¤ä¸Ń": 8426,
      "Ġfalling": 8427,
      "uz": 8428,
      "Ð»": 8429,
      "ä¸Ģå¿µ": 8430,
      "æ²Ĳ": 8431,
      "éĤ£éº½": 8432,
      "æĹłè¾ľ": 8433,
      "æ²¡èĥ½": 8434,
      "åĸĩ": 8435,
      "éĢĥèĦ±": 8436,
      "åłķèĲ½": 8437,
      "ma": 8438,
      "uck": 8439,
      "çļĦå¾Ī": 8440,
      "æĪĳçļĦå°ı": 8441,
      "ä¸ĭåįĪ": 8442,
      "å¯¹è±¡": 8443,
      "æľĢéļ¾": 8444,
      "ä¸ĸä¿Ĺ": 8445,
      "çĲµ": 8446,
      "ãĤį": 8447,
      "çĻ¾èĬ±": 8448,
      "æ°ĳæĹı": 8449,
      "è¼ķ": 8450,
      "å«īå¦Ĵ": 8451,
      "çį": 8452,
      "ä¸įåĥı": 8453,
      "åı¯æľī": 8454,
      "åĲİéĿ¢": 8455,
      "ä»ĸæľĿ": 8456,
      "çĲ¶": 8457,
      "ä½Ĩæ±Ĥ": 8458,
      "åĵİåĵŁ": 8459,
      "çĪ±è¿ĩæĪĳ": 8460,
      "æ»ļçĥ«": 8461,
      "ET": 8462,
      "Ã©": 8463,
      "èŁ": 8464,
      "Ġ...": 8465,
      "æĪĳéĹ®": 8466,
      "å¼Ģå¿ĥçļĦ": 8467,
      "çº¤": 8468,
      "åıĺèĢģ": 8469,
      "æ¸©çĥŃ": 8470,
      "çŁ¥éģĵä½ł": 8471,
      "ä¸ĩå²ģ": 8472,
      "æķħäºº": 8473,
      "ä½łæĺ¯ä¸įæĺ¯": 8474,
      "åĨħçĸļ": 8475,
      "è¡Ģæ¶²": 8476,
      "çĮľä¸įéĢı": 8477,
      "åŀĴ": 8478,
      "çļĦèĬ±æľµ": 8479,
      "ä½łç»ĻçļĦ": 8480,
      "ãģ£ãģŁ": 8481,
      "ĠäººçĶŁ": 8482,
      "äºĨè°ģ": 8483,
      "åĨįçŃī": 8484,
      "é£İé£İéĽ¨éĽ¨": 8485,
      "éļıæĦı": 8486,
      "è®©ä½łèµ°": 8487,
      "ç¥ĿæĦ¿": 8488,
      "æĭ¿ä»Ģä¹Ī": 8489,
      "åĸĦåıĺ": 8490,
      "æĿĳåºĦ": 8491,
      "pen": 8492,
      "Ġæĥ³è¦ģ": 8493,
      "è¯´è¦ģ": 8494,
      "æģķ": 8495,
      "å½ĵä¸Ń": 8496,
      "ç¢ĳ": 8497,
      "æĩĤæĪĳ": 8498,
      "æ²īæºº": 8499,
      "æįīæĳ¸": 8500,
      "çĲµçĲ¶": 8501,
      "ìķ": 8502,
      "å¥½å¥ĩ": 8503,
      "ä¸Ĭè·¯": 8504,
      "æĺİæĺ¾": 8505,
      "å¥³ç¥ŀ": 8506,
      "èĭ¥è¦ģ": 8507,
      "çĶ±æĪĳ": 8508,
      "çīµå¼ķ": 8509,
      "çīµç»Ĭ": 8510,
      "é©¼": 8511,
      "ä»»æĪĳ": 8512,
      "Ġpain": 8513,
      "çģ°èī²çļĦ": 8514,
      "åĵģå°Ŀ": 8515,
      "Ġç©º": 8516,
      "ä¸įéĨī": 8517,
      "ä¸ªæĢ§": 8518,
      "å¾ĹéĤ£ä¹Ī": 8519,
      "æłı": 8520,
      "æ´Ľ": 8521,
      "æģĭçĪ±çļĦ": 8522,
      "çĽ¸ä¿¡ä½ł": 8523,
      "æ²³è¾¹": 8524,
      "çĩ¥": 8525,
      "éĢĢç¼©": 8526,
      "æĮ¥æĮ¥æīĭ": 8527,
      "ä¸įæĩĤå¾Ĺ": 8528,
      "çŁ³çĥĤ": 8529,
      "Ġä¼¤": 8530,
      "ä¸įä¿¡": 8531,
      "å°±æĢķ": 8532,
      "æµİ": 8533,
      "åİ»åİ»": 8534,
      "çĥ¬": 8535,
      "å·²ä¹ħ": 8536,
      "åĴĮå¥¹": 8537,
      "çŁŃçŁŃ": 8538,
      "ä¼¤å®³æĪĳ": 8539,
      "èĢĲå¿ĥ": 8540,
      "ness": 8541,
      "Ġæīĭ": 8542,
      "ä½łçĶĺ": 8543,
      "ä¸įæĶ¹": 8544,
      "å·į": 8545,
      "å¤ļå¸ĮæľĽ": 8546,
      "åİ»å¯»æī¾": 8547,
      "æ¢¦åĽŀ": 8548,
      "çĭĲ": 8549,
      "æ´»è¯¥": 8550,
      "å½Ĵå®¿": 8551,
      "èĭıéĨĴ": 8552,
      "more": 8553,
      "æĹłæģĻ": 8554,
      "åİ»åĲĳ": 8555,
      "åĴĽ": 8556,
      "ä¸ĭéĽª": 8557,
      "å¤ľå·²": 8558,
      "Ġmade": 8559,
      "éļ¾é¢ĺ": 8560,
      "ä¹Łè®¸ä½ł": 8561,
      "èī°è¾Ľ": 8562,
      "NA": 8563,
      "Ġæ¯ı": 8564,
      "çļĦéĽª": 8565,
      "è¯´ä¸Ģå£°": 8566,
      "å¦Ĥé£İ": 8567,
      "ç»ĻäºĨæĪĳ": 8568,
      "éĽ¨åŃ£": 8569,
      "è½¬è½¬": 8570,
      "æľīäººåľ¨": 8571,
      "åľĨæ»¡": 8572,
      "ĠTo": 8573,
      "åºŁè¯Ŀ": 8574,
      "ç½®èº«": 8575,
      "Ġbreak": 8576,
      "æĪĳçľĭåĪ°": 8577,
      "ä½łä¸ºä½ķ": 8578,
      "ä¸įè¨Ģ": 8579,
      "åĨĢ": 8580,
      "èĬ±èķĬ": 8581,
      "èĲ½å¹ķ": 8582,
      "éķ¿åŁİ": 8583,
      "è¶Ĭèµ°": 8584,
      "æŃ»äºĨ": 8585,
      "çĪ±è¿ĩä½ł": 8586,
      "ĠGirl": 8587,
      "éĺ»ç¢į": 8588,
      "å¯Įè´µ": 8589,
      "èĦĳæµ·éĩĮ": 8590,
      "å¾ģæľį": 8591,
      "æĿ¨æŁ³": 8592,
      "ring": 8593,
      "´ë": 8594,
      "çļĦè¿ĩåİ»": 8595,
      "çĪ±åĥı": 8596,
      "å®ľ": 8597,
      "è®©è¿Ļ": 8598,
      "ä¸ĸä¸ĸ": 8599,
      "Ġwind": 8600,
      "ç®Ĺä¸įç®Ĺ": 8601,
      "å®īå¿ĥ": 8602,
      "Ġthing": 8603,
      "åľ¨å¿ĥéĹ´": 8604,
      "æĹłèĥ½ä¸ºåĬĽ": 8605,
      "Ġæĥ³ä½ł": 8606,
      "å°±ä¼¼": 8607,
      "åĪ°å¤©äº®": 8608,
      "ä¹Łéĥ½": 8609,
      "åĨ·åį´": 8610,
      "ä¸¤è¡Į": 8611,
      "éħ¸çĶľ": 8612,
      "æĿ¥æĿ¥æĿ¥æĿ¥": 8613,
      "åı®åĴĽ": 8614,
      "æħĪæĤ²": 8615,
      "ä½łä¸Ģ": 8616,
      "ä¸įèĢģ": 8617,
      "å¥½äºº": 8618,
      "çľĭä¼¼": 8619,
      "éĽ¨æ»´": 8620,
      "å®īç¨³": 8621,
      "ä¸īçĶŁ": 8622,
      "è®°å¿ĨéĩĮ": 8623,
      "å¥ĶæĶ¾": 8624,
      "åı³æīĭ": 8625,
      "å°ģä¿¡": 8626,
      "çļĦç»ĵå±Ģ": 8627,
      "æľīæ³ª": 8628,
      "æĽ¦": 8629,
      "çĽ¸éĢģ": 8630,
      "çİĦ": 8631,
      "æ²¡æľīè°ģ": 8632,
      "ä½ķä¸į": 8633,
      "æµ·æŀ¯": 8634,
      "åıĹä¸įäºĨ": 8635,
      "åĪĿæ¬¡": 8636,
      "æĪĺåıĭ": 8637,
      "çŃīä½łæĿ¥": 8638,
      "æĽ¿ä½ł": 8639,
      "Ġloving": 8640,
      "Ø²": 8641,
      "æĭ£": 8642,
      "çĹĽäºĨ": 8643,
      "åıĮäºº": 8644,
      "æ¼«æ¼«éķ¿": 8645,
      "æĴĩ": 8646,
      "å½©éľŀ": 8647,
      "å¤ıåŃ£": 8648,
      "åħĨ": 8649,
      "çĿĢæĢ¥": 8650,
      "ãģ²": 8651,
      "è¿ĺåı¯ä»¥": 8652,
      "æľĢç¾İä¸½çļĦ": 8653,
      "è¢±": 8654,
      "Ġdie": 8655,
      "æĬ±çĿĢæĪĳ": 8656,
      "å®ĥä»¬": 8657,
      "æīĵçł´": 8658,
      "æĪĳå¿ĥä¸ŃçļĦ": 8659,
      "ç»Ĩç»Ĩ": 8660,
      "èļĤ": 8661,
      "æ³Ľæ»¥": 8662,
      "åĩĨå¤ĩå¥½": 8663,
      "Ġä¸ĩ": 8664,
      "å¤©åħī": 8665,
      "åī¥": 8666,
      "åĥ§": 8667,
      "ä»ĸåľ¨": 8668,
      "åħīå½©": 8669,
      "reat": 8670,
      "éĿ¢ä¸Ĭ": 8671,
      "åħ¶ä»ĸ": 8672,
      "ãģĹãģĦ": 8673,
      "çĶļéº½": 8674,
      "åħĳçİ°": 8675,
      "IS": 8676,
      "Ġé£ĺ": 8677,
      "å¤§æŃ¥": 8678,
      "åıĺå¿ĥ": 8679,
      "æĪĲè´¥": 8680,
      "æ·±ç§ĭ": 8681,
      "orning": 8682,
      "èįīåİŁä¸Ĭ": 8683,
      "Ġchange": 8684,
      "ugh": 8685,
      "Ġåıªèĥ½": 8686,
      "æĥħéĥİ": 8687,
      "åı¯ä¼ļ": 8688,
      "å°ıä¸ĳ": 8689,
      "æľªå¿ħ": 8690,
      "æļĹæļĹ": 8691,
      "æīĢè°ĵçļĦ": 8692,
      "éķľå¤´": 8693,
      "é¹¤": 8694,
      "å¤ªåĤ»": 8695,
      "Ġbody": 8696,
      "éķ¿å®ī": 8697,
      "æ°´æµģ": 8698,
      "çĶ¨æĪĳ": 8699,
      "å¤Łä¸įå¤Ł": 8700,
      "éĿĴèįī": 8701,
      "æľīäºĽäºĭ": 8702,
      "ä¹ĺé£İ": 8703,
      "åį¸ä¸ĭ": 8704,
      "çļĦç§ĺå¯Ĩ": 8705,
      "æĪĳä¸Ģä¸ª": 8706,
      "æľĽç©¿": 8707,
      "Ġwish": 8708,
      "éĽ¨åĲİ": 8709,
      "æµ·éĩĮ": 8710,
      "ooking": 8711,
      "åŃ¤åįķåįķ": 8712,
      "Ġsame": 8713,
      "éªĳçĿĢ": 8714,
      "åĺĢåĹĴ": 8715,
      "åİīå®³": 8716,
      "åĸľæĢĴåĵĢä¹Ĳ": 8717,
      "Then": 8718,
      "è³": 8719,
      "Ġåįĥ": 8720,
      "Ġå¤ļä¹Ī": 8721,
      "ä½łä¸įèĥ½": 8722,
      "ä¸įæĪĲ": 8723,
      "åĨįçĪ±": 8724,
      "çī¡": 8725,
      "æĦıè¯Ĩ": 8726,
      "èĲ½éŃĦ": 8727,
      "æ»¡èħ¹": 8728,
      "åıĹç½ª": 8729,
      "Ġä½łè¯´": 8730,
      "åģĩçļĦ": 8731,
      "åĢĴå½±": 8732,
      "æ¼ĶåĶ±": 8733,
      "åı°ä¸Ĭ": 8734,
      "åķĬåķĬåķĬåķĬ": 8735,
      "Wo": 8736,
      "nce": 8737,
      "ä½łæīį": 8738,
      "æĥħæĺ¯": 8739,
      "æĶĺ": 8740,
      "å¤ªæĻļ": 8741,
      "åħīçº¿": 8742,
      "è§£æĶ¾": 8743,
      "çŃīå¾ħä½ł": 8744,
      "Ġwords": 8745,
      "ä¸Ģç§ĴéĴŁ": 8746,
      "çĽĺæĹĭ": 8747,
      "ä¸įçĦ¶": 8748,
      "äººå¾Ģ": 8749,
      "æĿĨ": 8750,
      "åŃĿ": 8751,
      "æľĢå¤ļ": 8752,
      "å¤§éģĵ": 8753,
      "ĠæĪĳéĥ½": 8754,
      "é£ŀé¸Ł": 8755,
      "ä¸įè¦ģä¸įè¦ģ": 8756,
      "Ġä½łåį´": 8757,
      "çº¢èī²çļĦ": 8758,
      "çª¥": 8759,
      "èº²éģ¿": 8760,
      "çĪ±è¿ĩçļĦäºº": 8761,
      "å±ŀäºİæĪĳçļĦ": 8762,
      "æµħæµħ": 8763,
      "åħģè®¸": 8764,
      "ĺë": 8765,
      "çļĦæ³ªæ°´": 8766,
      "æĪĳåľ¨ä½ł": 8767,
      "ä¹ĥ": 8768,
      "res": 8769,
      "Ġä¸įå¦Ĥ": 8770,
      "åĮħè¢±": 8771,
      "æµĵæµĵ": 8772,
      "ï¿½ï¿½ï¿½ï¿½": 8773,
      "Ġhands": 8774,
      "çĪ±çģ«": 8775,
      "çĿ¡äºĨ": 8776,
      "ç¨»": 8777,
      "æĢ§æł¼": 8778,
      "ĠBa": 8779,
      "åºĨç¥Ŀ": 8780,
      "Ġplace": 8781,
      "ä¸ĢåłĨ": 8782,
      "éĤ£ä¸Ģä¸ª": 8783,
      "åĮĻ": 8784,
      "åħ¥çľł": 8785,
      "Ġbeat": 8786,
      "éĺ®çļĦå¿ĥ": 8787,
      "åĽŀåĪ°ä»İåīį": 8788,
      "çĹĽèĭ¦çļĦ": 8789,
      "æĬĵç´§": 8790,
      "æĻĵå¾Ĺ": 8791,
      "ç¿¼ç¿¼": 8792,
      "å¤ľæĿ¥é¦Ļ": 8793,
      "AR": 8794,
      "è®¸æĦ¿": 8795,
      "å¹²åĩĢ": 8796,
      "æķ°çĿĢ": 8797,
      "ä¿Ŀä½ĳ": 8798,
      "éĩĳèī²çļĦ": 8799,
      "èĩ³ä»Ĭ": 8800,
      "èĭįèĭį": 8801,
      "ä¸ĢæľµèĬ±": 8802,
      "Ġdays": 8803,
      "çĪ¸çĪ¸å¦Īå¦Ī": 8804,
      "ä¸įé¡¾èº«": 8805,
      "è¬Ľ": 8806,
      "èĹīåı£": 8807,
      "æĿĲ": 8808,
      "è¯´çļĦè¯Ŀ": 8809,
      "èĥ½è®©æĪĳ": 8810,
      "æ»¡æĦı": 8811,
      "åĨ·èĲ½": 8812,
      "è½¬å¼¯": 8813,
      "áłł": 8814,
      "å¼¥è¡¥": 8815,
      "ãĤĪãģĨ": 8816,
      "å¡Įåľ°": 8817,
      "çļĦå¤ªéĺ³": 8818,
      "ä½łçļĦæ¶Īæģ¯": 8819,
      "å°ıå··": 8820,
      "è´¼": 8821,
      "çľŁçļĦå¾Ī": 8822,
      "èĵ¬": 8823,
      "Ġready": 8824,
      "ĠTHE": 8825,
      "å¸®åĬ©": 8826,
      "ä½³äºº": 8827,
      "Ġéļ¾éģĵ": 8828,
      "æĥħçĪ±": 8829,
      "èĲĿ": 8830,
      "çĻ½äºĨ": 8831,
      "è®¸ä¸ĭçļĦ": 8832,
      "æ²īé»ĺçļĦ": 8833,
      "ãģªãĤī": 8834,
      "åĲĦæľī": 8835,
      "åıĸä»£": 8836,
      "æĦŁè°¢ä½ł": 8837,
      "æĴĴå¨ĩ": 8838,
      "æ§Ł": 8839,
      "Ø¯Ùī": 8840,
      "ub": 8841,
      "ä¸įçĽ¸": 8842,
      "ä¸Ģå¯¸": 8843,
      "éĺħ": 8844,
      "èĪĩ": 8845,
      "çķĻä½İ": 8846,
      "æĢİä¹ĪäºĨ": 8847,
      "çľŁçļĦå¥½": 8848,
      "å¤ĸè¡¨": 8849,
      "è¾¾åĴ§": 8850,
      "æĭ¼åĩĳ": 8851,
      "çļĦå¤©æ°Ķ": 8852,
      "å¥ĭä¸įé¡¾èº«": 8853,
      "å±ĭé¡¶": 8854,
      "ĠèĢģ": 8855,
      "ĠçĪ±æĪĳ": 8856,
      "ä¸ĢæĻļ": 8857,
      "éģ£": 8858,
      "ä¸ĢåĪ¹éĤ£": 8859,
      "åĨ·æ·¡": 8860,
      "ç´§è¦ģ": 8861,
      "æ¡Ĳ": 8862,
      "çļĦçĪ±æģĭ": 8863,
      "åģ·èµ°": 8864,
      "å¤ļå¹´ä»¥åĲİ": 8865,
      "æ¦ľ": 8866,
      "ancing": 8867,
      "ĠåĽŀ": 8868,
      "Ġè½»": 8869,
      "æĪĳéĻªä½ł": 8870,
      "ä¸Ģåĩº": 8871,
      "æ¢¦ä¸Ģåľº": 8872,
      "æĶ¾ä½İ": 8873,
      "Ġfire": 8874,
      "æĺŁçĲĥ": 8875,
      "éªı": 8876,
      "éĿĴä¸Ŀ": 8877,
      "æİīä¸ĭæĿ¥": 8878,
      "æĺİçĻ½æĪĳ": 8879,
      "åĨĻåľ¨": 8880,
      "å¿įçĿĢ": 8881,
      "çĽ¼ä½ł": 8882,
      "alala": 8883,
      "çŁŃæļĤçļĦ": 8884,
      "æģŃåĸľä½ł": 8885,
      "USIC": 8886,
      "çļĦæĪĳä»¬": 8887,
      "ä¸įåħį": 8888,
      "ä¸įåĢ¼å¾Ĺ": 8889,
      "è®©æĹ¶éĹ´": 8890,
      "éĩįæ¼Ķ": 8891,
      "åĭķ": 8892,
      "å¹³è¡¡": 8893,
      "çĭĤå¥Ķ": 8894,
      "ç¨£": 8895,
      "æłĳä¸Ĭ": 8896,
      "è¯ļæģ³": 8897,
      "ãģĵãģ¨": 8898,
      "çī¡ä¸¹": 8899,
      "ge": 8900,
      "ÑĤ": 8901,
      "ä¸Ģæīĩ": 8902,
      "çĪ±æħķ": 8903,
      "è¦ģä¸įè¦ģ": 8904,
      "å°±åľ¨è¿Ļ": 8905,
      "åı¯æĽ¾": 8906,
      "æĦŁæģ©": 8907,
      "æ·±æĥħçļĦ": 8908,
      "æµ·æ°´": 8909,
      "éĩįçİ°": 8910,
      "ä¹±ä¸ĸ": 8911,
      "éĢıäºĨ": 8912,
      "Ġlost": 8913,
      "ä½łèº«è¾¹": 8914,
      "çĪ±ä¼ļ": 8915,
      "äºĨå°±": 8916,
      "éĹº": 8917,
      "Ġse": 8918,
      "æ·±å®µ": 8919,
      "åĩłéģį": 8920,
      "ç²¹": 8921,
      "Ġlover": 8922,
      "åįģåŃĹ": 8923,
      "éĽĦé¹°": 8924,
      "ç©ºæ°Ķä¸Ń": 8925,
      "ä¸ĵå¿ĥ": 8926,
      "new": 8927,
      "èģĶç³»": 8928,
      "Ġdark": 8929,
      "Ġä¸Ĭ": 8930,
      "Ġä»įçĦ¶": 8931,
      "åıĪæĿ¥": 8932,
      "éļ¾å¿ĺè®°": 8933,
      "äºĭå®ŀ": 8934,
      "éģĹå¤±": 8935,
      "åĽĽåĳ¨": 8936,
      "áł¢": 8937,
      "èĢ¶ç¨£": 8938,
      "åĵ¼çĿĢ": 8939,
      "ãĥ»ãĥ»": 8940,
      "éĤ¦": 8941,
      "ä½łçļĦä¸ĢåĪĩ": 8942,
      "èĩªéĹ®": 8943,
      "åĶ±çīĩ": 8944,
      "çº¢çģ¯": 8945,
      "æı£": 8946,
      "ä¸ĢçĤ¹ä¸Ģæ»´": 8947,
      "çĨĻ": 8948,
      "ç§ĭåįĥ": 8949,
      "å¹»çģŃ": 8950,
      "äº¤ç»ĩ": 8951,
      "åĺ´åĶĩ": 8952,
      "éģ¿åħį": 8953,
      "æģĲæĢķ": 8954,
      "åĸ§åļ£": 8955,
      "çĽĲ": 8956,
      "æĪĳçļĦæľĭåıĭ": 8957,
      "æ³°": 8958,
      "æĤ¯": 8959,
      "åĶł": 8960,
      "æµģåĬ¨": 8961,
      "æ°¸éģł": 8962,
      "åŃĲçļĦ": 8963,
      "è¯Ŀè¯Ń": 8964,
      "åĲĮä¸Ģä¸ª": 8965,
      "åĽŀå¤´çľĭ": 8966,
      "æī§è¿·": 8967,
      "æ³¨å®ļè¦ģ": 8968,
      "åĩĿè§Ĩ": 8969,
      "æĺĶæĹ¥": 8970,
      "åĤ»åĤ»çļĦ": 8971,
      "éĶ¦ç»£": 8972,
      "çļĦæĹĭå¾ĭ": 8973,
      "æĹłæŃ¢": 8974,
      "åĪ«äºĨ": 8975,
      "ç¦ıæ°Ķ": 8976,
      "Ġbefore": 8977,
      "æ¶Īçĺ¦": 8978,
      "ent": 8979,
      "ä¸įæĸŃçļĦ": 8980,
      "å°ıå¿ĥç¿¼ç¿¼": 8981,
      "éĹŃä¸ĬåıĮçľ¼": 8982,
      "è¶ģçĿĢ": 8983,
      "Is": 8984,
      "lp": 8985,
      "Ġæĺİå¤©": 8986,
      "æĺ¯å¤ļä¹Ī": 8987,
      "èĥ½åĬĽ": 8988,
      "åºĻ": 8989,
      "æľĢéĩįè¦ģ": 8990,
      "åĸ³": 8991,
      "åĪĨæĺİ": 8992,
      "Ġfight": 8993,
      "åįĬå¤ľ": 8994,
      "Ġhim": 8995,
      "ĠYa": 8996,
      "æĹłéĻĲçļĦ": 8997,
      "Ġè¿Ļæł·": 8998,
      "ä¼«": 8999,
      "æĹłåĲį": 9000,
      "æĪĳçļĦçľ¼çĿĽ": 9001,
      "æ²¡éĶĻ": 9002,
      "èĬ±çļĦ": 9003,
      "è®©æĪĳæĿ¥": 9004,
      "èĥŀ": 9005,
      "å¥¹åľ¨": 9006,
      "èı²": 9007,
      "ä¸įå¾Ĺå·²": 9008,
      "åĳ¨æľ«": 9009,
      "Ġplease": 9010,
      "æµ·å²¸": 9011,
      "Ġflow": 9012,
      "æĪĳçļĦå¿ĥä¸Ń": 9013,
      "æĪĳå¿ĥåºķ": 9014,
      "ä¸įæĥ³ä½ł": 9015,
      "ä¿Ŀéĩį": 9016,
      "æ½®æ°´": 9017,
      "çĮľæµĭ": 9018,
      "Ø§ÙĨ": 9019,
      "åĲ«æ³ª": 9020,
      "æĴŀæĴŀ": 9021,
      "æ²¿è·¯": 9022,
      "è¾£è¾£": 9023,
      "é»¯çĦ¶": 9024,
      "give": 9025,
      "ä¸ĢéĹª": 9026,
      "åĺī": 9027,
      "æķ£åİ»": 9028,
      "æ¨Ĥ": 9029,
      "äº¤åĩº": 9030,
      "åĢĴæµģ": 9031,
      "è¿Ļä¹Īå¤ļå¹´": 9032,
      "åĺ´è¾¹": 9033,
      "æľĪåħīä¸ĭ": 9034,
      "æ»ĭæ¶¦": 9035,
      "çİ¯å¢ĥ": 9036,
      "che": 9037,
      "ĠèĲ½": 9038,
      "ĠéĨī": 9039,
      "æĪĳæī¿è®¤": 9040,
      "å¿ĥä¹Ł": 9041,
      "Ġyes": 9042,
      "äºİæĺ¯æĪĳ": 9043,
      "å¥³æľĭåıĭ": 9044,
      "orn": 9045,
      "è¿½éĹ®": 9046,
      "Ġput": 9047,
      "å°ĺå°ģ": 9048,
      "Your": 9049,
      "åĪĴçł´": 9050,
      "è¶£åĳ³": 9051,
      "çĪ·çĪ·": 9052,
      "çļ±çº¹": 9053,
      "times": 9054,
      "woo": 9055,
      "Ð¼": 9056,
      "Ġå±±": 9057,
      "ä½łåıª": 9058,
      "ãģļ": 9059,
      "ount": 9060,
      "éĻĨ": 9061,
      "Ġlose": 9062,
      "æĺŁåº§": 9063,
      "åĳ½çļĦ": 9064,
      "åĽłæŀľ": 9065,
      "åĩłå¤©": 9066,
      "èİ¹": 9067,
      "å¤ĸå¥Ĺ": 9068,
      "é¸Ń": 9069,
      "èĤ©ä¸Ĭ": 9070,
      "çĪ¸å¦Ī": 9071,
      "Ġclose": 9072,
      "çļĦéĤ£ä¸Ģ": 9073,
      "åľ¨çŃī": 9074,
      "å¾¡": 9075,
      "åİ»æī¾": 9076,
      "åĪĨæĭħ": 9077,
      "æº«": 9078,
      "å°ĺä¸ĸ": 9079,
      "çĽ´åĪ°æ°¸è¿ľ": 9080,
      "æĦļèł¢": 9081,
      "èļĤèļģ": 9082,
      "ä¸įåĸľæ¬¢": 9083,
      "å°ĩ": 9084,
      "åľ¨éĽ¨ä¸Ń": 9085,
      "å¿ĥæĪ¿": 9086,
      "è¯´èµ·": 9087,
      "ä¹Īä¹Ī": 9088,
      "åĪ«æĿ¥": 9089,
      "éĿ¢åŃĶ": 9090,
      "æĹ§çļĦ": 9091,
      "æĽ²ç»Ī": 9092,
      "åľ¨ä½łçļĦèº«è¾¹": 9093,
      "çĪ¹å¨ĺ": 9094,
      "æ²¥æ²¥": 9095,
      "åĶıåĺĺ": 9096,
      "ĠéľĢè¦ģ": 9097,
      "ä½łçĪ±çļĦ": 9098,
      "ä¸įç¾ģ": 9099,
      "ä¸Ģå±Ĥ": 9100,
      "è¿Ļåº§": 9101,
      "æ¯ıä¸ĢåĪ»": 9102,
      "çİ°åľ¨çļĦæĪĳ": 9103,
      "çªĹåı£": 9104,
      "èº²èĹı": 9105,
      "åĿĲçĿĢ": 9106,
      "ç¬¬ä¸ī": 9107,
      "rap": 9108,
      "çĸ¯çĭĤçļĦ": 9109,
      "è´¢ç¥ŀ": 9110,
      "åľ¨èĢ³è¾¹": 9111,
      "åİ»éĹ¯": 9112,
      "å¤§å¤§": 9113,
      "å¿ħè¦ģ": 9114,
      "æĺ¯ä¸Ģçīĩ": 9115,
      "çĥĪéħĴ": 9116,
      "èĴĤ": 9117,
      "Sha": 9118,
      "Ġz": 9119,
      "ä¹Łç½¢": 9120,
      "çŁľ": 9121,
      "é£ŀè¶Ĭ": 9122,
      "æĹ©æĻļ": 9123,
      "ä¹İæĪĳ": 9124,
      "è½»è½»åĲ¹": 9125,
      "ãģĦãģ¤": 9126,
      "è´Łå¿ĥ": 9127,
      "è¿ľæĸ¹çļĦ": 9128,
      "ĠSo": 9129,
      "åŀĥ": 9130,
      "ONE": 9131,
      "Ġæī¾": 9132,
      "å®ħ": 9133,
      "æĥ³åĪ°ä½ł": 9134,
      "æĬī": 9135,
      "åıªæ±Ĥ": 9136,
      "åĪ«å¤ª": 9137,
      "å¤ľéĽ¨": 9138,
      "åıĪä¼ļ": 9139,
      "æ³ªçıł": 9140,
      "åģļå¥½": 9141,
      "åľ¨ä½łéĿ¢åīį": 9142,
      "è¥¿ä¸ľ": 9143,
      "çĬĢ": 9144,
      "æľīå¤ļè¿ľ": 9145,
      "åľ¨æĪĳå¿ĥåºķ": 9146,
      "èĪ¹åĦ¿": 9147,
      "æĬļæħ°": 9148,
      "Make": 9149,
      "æĪĢ": 9150,
      "æĪĳåı¯": 9151,
      "æĪĳåĨ³å®ļ": 9152,
      "ä¸ĢæĬ¹": 9153,
      "åľ¾": 9154,
      "çĿĢçľ¼": 9155,
      "åıĪæĢİæł·": 9156,
      "ond": 9157,
      "æĽ´é«ĺ": 9158,
      "ory": 9159,
      "ummer": 9160,
      "123": 9161,
      "åĨįçľĭ": 9162,
      "ä½łçļĦèº«è¾¹": 9163,
      "æĪĳä»¬éĥ½æĺ¯": 9164,
      "ä¼¤çļĦ": 9165,
      "æĬĬæīĢæľī": 9166,
      "å±±ä¸ĭ": 9167,
      "è½¬åıĺ": 9168,
      "è®©ä½łçŁ¥éģĵ": 9169,
      "çº¿ç´¢": 9170,
      "ä¸ľé£İ": 9171,
      "èĭįç©¹": 9172,
      "åĴĮæĪĳä¸Ģæł·": 9173,
      "æĻ¨æĽ¦": 9174,
      "ãĢĤãĢĤãĢĤ": 9175,
      "å¨±ä¹Ĳ": 9176,
      "åŀĥåľ¾": 9177,
      "çļĦæĺ¯ä½ł": 9178,
      "ä¸įåĪĨç¦»": 9179,
      "çĽĴ": 9180,
      "è°ģæĦ¿": 9181,
      "èµ°ä¸Ģ": 9182,
      "ç§¦": 9183,
      "åį´æĹłæ³ķ": 9184,
      "æľĪå¨ĺ": 9185,
      "é£ŀå¥Ķ": 9186,
      "æµ·é¸¥": 9187,
      "èĭ¦è¾£": 9188,
      "ä¸īçĻ¾": 9189,
      "Ġex": 9190,
      "éĩİèĬ±": 9191,
      "ç»¿èī²çļĦ": 9192,
      "çº¯çľŁçļĦ": 9193,
      "èī¯è¾°": 9194,
      "éªıé©¬": 9195,
      "ĠæľªæĿ¥": 9196,
      "ĠåĪ°åºķ": 9197,
      "Ġæ¢ŃåĵĪ": 9198,
      "æĹłçķı": 9199,
      "åĨįå¤§": 9200,
      "åı¯è´µ": 9201,
      "Ġlast": 9202,
      "è¢į": 9203,
      "çĶ¨æĿ¥": 9204,
      "ç¥ŀä»Ļ": 9205,
      "åħ±åº¦": 9206,
      "æĭīæī¯": 9207,
      "ä¸įç®¡æĺ¯": 9208,
      "æĺ¨å¤©çļĦ": 9209,
      "éľ²åĩº": 9210,
      "ä¸¢ä¸ĭ": 9211,
      "çļĦéĤ£ä¸Ģå¤©": 9212,
      "åĲĮæł·çļĦ": 9213,
      "Everything": 9214,
      "ÙĦÙī": 9215,
      "æĪĳæĹ©å·²": 9216,
      "çİ²": 9217,
      "æ»¿": 9218,
      "æħ·": 9219,
      "è§£èį¯": 9220,
      "é©¶": 9221,
      "éļĲçº¦": 9222,
      "éªĦåĤ²çļĦ": 9223,
      "è¿Ļç§įæĦŁè§ī": 9224,
      "è®¤è¯Ĩä½ł": 9225,
      "ìĹ": 9226,
      "ĠæĢĿå¿µ": 9227,
      "ĠçķĻä¸ĭ": 9228,
      "æĪĳç»Ļä½ł": 9229,
      "ä¸įè®¸": 9230,
      "ä¸įæĥĬ": 9231,
      "åľ¨è·¯ä¸Ĭ": 9232,
      "ä¹Łä¸įè¦ģ": 9233,
      "ä¹ŁæĹłæ³ķ": 9234,
      "åĥıä¸Ģä¸ª": 9235,
      "æµģçĿĢ": 9236,
      "æľªå®Į": 9237,
      "åģļéĶĻ": 9238,
      "éĿŀè¦ģ": 9239,
      "çĸĳæĥĳ": 9240,
      "ä½Ļæ¸©": 9241,
      "æľīä¸ªäºº": 9242,
      "ĠëĤ": 9243,
      "EAH": 9244,
      "ä½łæĥ³è¦ģ": 9245,
      "ï¼Ĭ": 9246,
      "æ²¡ç»ĵæŀľ": 9247,
      "åĽŀåĵį": 9248,
      "çŁ¥æĪĳ": 9249,
      "Ġbir": 9250,
      "Ġthese": 9251,
      "èģ½": 9252,
      "ä¸įåĩºæĿ¥": 9253,
      "éľ²æ°´": 9254,
      "æĪĴæĮĩ": 9255,
      "ä¼Ļä¼´": 9256,
      "éĦ": 9257,
      "æĪĳéĥ½ä¸į": 9258,
      "åĵ½": 9259,
      "åĴ»": 9260,
      "Ġtouch": 9261,
      "å°ıæĹ¶": 9262,
      "æĹ©æĹ¥": 9263,
      "arling": 9264,
      "ä»»çĶ±": 9265,
      "alking": 9266,
      "ç»¿èī²": 9267,
      "è½¬è¿ĩèº«": 9268,
      "æĥħä¹¦": 9269,
      "åķ·": 9270,
      "èĩªå·²": 9271,
      "åı¯æĤ²": 9272,
      "ä¼¤çĸ¤": 9273,
      "ç¬ĳå¾Ĺ": 9274,
      "Ġlady": 9275,
      "éķ¿æ±Ł": 9276,
      "äº¤ç»ĻæĪĳ": 9277,
      "éļ¾éģĵä½ł": 9278,
      "éĺ»æŃ¢": 9279,
      "è®¯æģ¯": 9280,
      "çĶŁæĹ¥å¿«ä¹Ĳ": 9281,
      "\\'": 9282,
      "Ð´": 9283,
      "çļĦæĺ¯æĪĳ": 9284,
      "è¿ª": 9285,
      "ä½łçļĦå½±åŃĲ": 9286,
      "éĿĵ": 9287,
      "é£İä¸ŃçļĦ": 9288,
      "ç§ĭæĿ¥": 9289,
      "çł´æĻĵ": 9290,
      "çļĦè·¯åı£": 9291,
      "åĽ°æī°": 9292,
      "æĢİæł·çļĦ": 9293,
      "é¼ł": 9294,
      "Please": 9295,
      "ä½łéĹ®": 9296,
      "åľ¨æĪĳä»¬": 9297,
      "åľ¨é£ŀ": 9298,
      "ä¸Ģä¸ªå®¶": 9299,
      "æĶ¾å¤§": 9300,
      "çĥ§éħĴ": 9301,
      "å½¢å½±": 9302,
      "å¹½é»ĺ": 9303,
      "æĵ¦èĤ©èĢĮè¿ĩ": 9304,
      "çĤ½çĥŃ": 9305,
      "ä¸ĢæĹ©": 9306,
      "åĪĥ": 9307,
      "è®©å¥¹": 9308,
      "çĤ¹ç¼Ģ": 9309,
      "æĶ¾è¿ĩ": 9310,
      "é£ŀèĽ¾": 9311,
      "å¿µä½ł": 9312,
      "åįķè½¦": 9313,
      "æ²īæ²ī": 9314,
      "çļĦäººç¾¤": 9315,
      "ä¸įåĨįæĺ¯": 9316,
      "æµ®çĶŁ": 9317,
      "é²ľèī³": 9318,
      "é¢ĦæĸĻ": 9319,
      "Ġåıĳ": 9320,
      "Ġä»İæŃ¤": 9321,
      "åľ¨å¤©ç©º": 9322,
      "è·¯çģ¯": 9323,
      "ĠæĪĳå·²": 9324,
      "éĶĻè¿ĩçļĦ": 9325,
      "å²©": 9326,
      "åĨĻçĿĢ": 9327,
      "å¾®ç¬ĳçļĦ": 9328,
      "Ġlie": 9329,
      "çĶľèľľèľľ": 9330,
      "å«©": 9331,
      "ĠThe": 9332,
      "æ²§æµ·æ¡ĳçĶ°": 9333,
      "ug": 9334,
      "ÚĨ": 9335,
      "Ġè¿Ļæĺ¯": 9336,
      "åľ¨å®¶": 9337,
      "è®©å¿ĥ": 9338,
      "å¯¹ä¸įå¯¹": 9339,
      "èº«åľ¨": 9340,
      "æ¯ıå½ĵæĪĳ": 9341,
      "åĿŁ": 9342,
      "è·ŁçĿĢä½ł": 9343,
      "è¯·åĪ«": 9344,
      "å¿ĺè®°æĪĳ": 9345,
      "å¼łæľĽ": 9346,
      "æĳ©è¯ĥ": 9347,
      "Ġå¼Ģå§ĭ": 9348,
      "çļĦçŃīå¾ħ": 9349,
      "çļĦéĹ¨": 9350,
      "è¿ĩå¤´": 9351,
      "åĳ±": 9352,
      "è¿ĺä¸įå¤Ł": 9353,
      "åĴĢ": 9354,
      "å¤§ä¸įäºĨ": 9355,
      "èĲ½äºĨ": 9356,
      "éĶµ": 9357,
      "åģļæľĭåıĭ": 9358,
      "æŃ¤éĻħ": 9359,
      "å¹²æĿ¯": 9360,
      "éĺ¿å¦¹": 9361,
      "åħ¬åĽŃ": 9362,
      "è¯ķæİ¢": 9363,
      "æģ©çĪ±": 9364,
      "æĸĩåĮĸ": 9365,
      "æŃ»å¿ĥå¡Įåľ°": 9366,
      "æµ·æŀ¯çŁ³çĥĤ": 9367,
      "Ġçĭ¬": 9368,
      "ä¸Ģæ£µ": 9369,
      "åĪ°æ°¸ä¹ħ": 9370,
      "åİ»å¹´": 9371,
      "å¤ªç©º": 9372,
      "çĹĽå¿ĥ": 9373,
      "ä¸İéĿŀ": 9374,
      "åĳ¼åķ¸": 9375,
      "æ¸Ĳè¿ľ": 9376,
      "äº¤ç»Ļ": 9377,
      "æĪĳè¿ĺèĥ½": 9378,
      "å§Ĳå§Ĳ": 9379,
      "éĿłè¿ĳä½ł": 9380,
      "å®½å¹¿": 9381,
      "qu": 9382,
      "ÛĲ": 9383,
      "âĨ": 9384,
      "æĪĳå¯¹ä½łçļĦ": 9385,
      "ä¹į": 9386,
      "éĥ½çŁ¥éģĵ": 9387,
      "åĪ«æĥ³": 9388,
      "çķĻè¨Ģ": 9389,
      "å±±é¡¶": 9390,
      "ç»Īç»ĵ": 9391,
      "ä¸Ģå¤©å¤©": 9392,
      "å¤ĸçļĦ": 9393,
      "èĥĮä¸Ĭ": 9394,
      "æĶ¶åĽŀ": 9395,
      "è¿İéĿ¢": 9396,
      "OK": 9397,
      "Sh": 9398,
      "leep": 9399,
      "Øº": 9400,
      "Ġçħ§": 9401,
      "Ġæĭ¥æĬ±": 9402,
      "è¦ģç¦»å¼Ģ": 9403,
      "éĤ£ä¼ļ": 9404,
      "æĪĳçļĦçľ¼": 9405,
      "ä½łçļĦåĲ»": 9406,
      "æľĢå¤§çļĦ": 9407,
      "ä¸ĢåĪĢ": 9408,
      "Ġfine": 9409,
      "æĢİä¹Īåģļ": 9410,
      "è¿½éļı": 9411,
      "è¿½ç©¶": 9412,
      "æĨİ": 9413,
      "æĢªä½ł": 9414,
      "éĺ³åħīä¸ĭ": 9415,
      "èĲ¦ç»ķ": 9416,
      "èµ·é£ŀ": 9417,
      "è°ģèĥ½å¤Ł": 9418,
      "Ġmusic": 9419,
      "åķĬåĵĪ": 9420,
      "éĶ£": 9421,
      "æīįæĩĤ": 9422,
      "è·ŁæĪĳè¯´": 9423,
      "åįģä¸ĥ": 9424,
      "åĸĿäºĨ": 9425,
      "åĸĿå½©": 9426,
      "æľĿå¤ķ": 9427,
      "å¤©åľ°éĹ´": 9428,
      "çİ¯ç»ķ": 9429,
      "çļĦä¼¤çĹĽ": 9430,
      "Ġä¸ºäºĨ": 9431,
      "æĪĳå®³æĢķ": 9432,
      "å¿ĥæħĮ": 9433,
      "ç»»": 9434,
      "æ²¡å®Į": 9435,
      "èĬŃ": 9436,
      "è¾±": 9437,
      "æ·ħ": 9438,
      "Ġwrong": 9439,
      "å½ĵçĪ±": 9440,
      "anan": 9441,
      "åĲĳä¸Ĭ": 9442,
      "é²ľè¡Ģ": 9443,
      "è¸ªå½±": 9444,
      "IGHT": 9445,
      "Ġä¾ĿçĦ¶": 9446,
      "ĠæĪĳçļĦçĪ±": 9447,
      "æĪĳæīĭ": 9448,
      "åľ¨çĪ±": 9449,
      "è®¶": 9450,
      "æĿ¥åıĪ": 9451,
      "è¿Ļè¾ĪåŃĲ": 9452,
      "å¦©": 9453,
      "æĪĳçļĦçĶŁæ´»": 9454,
      "åı¯éĢĢ": 9455,
      "æĢĿè®®": 9456,
      "æĺ¯ä½łè®©æĪĳ": 9457,
      "çħ½": 9458,
      "ç§ĭæ°´": 9459,
      "çŃĶçŃĶ": 9460,
      "çľŁå¿ĥçľŁæĦı": 9461,
      "æ¿ĢåĬ¨": 9462,
      "å¸ĮæľĽä½łèĥ½": 9463,
      "æ¨±èĬ±": 9464,
      "çĢļ": 9465,
      "æħ·æħ¨": 9466,
      "ä½łåºĶè¯¥": 9467,
      "ä¸įå°ĳ": 9468,
      "åĵĨ": 9469,
      "çĤĻ": 9470,
      "æ·±çĪ±": 9471,
      "ä¸¤å¿ĥ": 9472,
      "èĳ±": 9473,
      "åįģåĪĨ": 9474,
      "æľµèĬ±": 9475,
      "æ´Ĵæ»¡": 9476,
[...]
